const unsigned char posture_detection_model_quantized_tflite[] = {
  0x1c, 0x00, 0x00, 0x00, 0x54, 0x46, 0x4c, 0x33, 0x14, 0x00, 0x20, 0x00,
  0x1c, 0x00, 0x18, 0x00, 0x14, 0x00, 0x10, 0x00, 0x0c, 0x00, 0x00, 0x00,
  0x08, 0x00, 0x04, 0x00, 0x14, 0x00, 0x00, 0x00, 0x1c, 0x00, 0x00, 0x00,
  0x8c, 0x00, 0x00, 0x00, 0xdc, 0x00, 0x00, 0x00, 0xac, 0x38, 0x00, 0x00,
  0xbc, 0x38, 0x00, 0x00, 0x20, 0x79, 0x00, 0x00, 0x03, 0x00, 0x00, 0x00,
  0x01, 0x00, 0x00, 0x00, 0x04, 0x00, 0x00, 0x00, 0x2a, 0x99, 0xff, 0xff,
  0x0c, 0x00, 0x00, 0x00, 0x1c, 0x00, 0x00, 0x00, 0x3c, 0x00, 0x00, 0x00,
  0x0f, 0x00, 0x00, 0x00, 0x73, 0x65, 0x72, 0x76, 0x69, 0x6e, 0x67, 0x5f,
  0x64, 0x65, 0x66, 0x61, 0x75, 0x6c, 0x74, 0x00, 0x01, 0x00, 0x00, 0x00,
  0x04, 0x00, 0x00, 0x00, 0x90, 0x9a, 0xff, 0xff, 0x30, 0x00, 0x00, 0x00,
  0x04, 0x00, 0x00, 0x00, 0x08, 0x00, 0x00, 0x00, 0x6f, 0x75, 0x74, 0x70,
  0x75, 0x74, 0x5f, 0x30, 0x00, 0x00, 0x00, 0x00, 0x01, 0x00, 0x00, 0x00,
  0x04, 0x00, 0x00, 0x00, 0x9e, 0x99, 0xff, 0xff, 0x04, 0x00, 0x00, 0x00,
  0x0c, 0x00, 0x00, 0x00, 0x6b, 0x65, 0x72, 0x61, 0x73, 0x5f, 0x74, 0x65,
  0x6e, 0x73, 0x6f, 0x72, 0x00, 0x00, 0x00, 0x00, 0x02, 0x00, 0x00, 0x00,
  0x2c, 0x00, 0x00, 0x00, 0x04, 0x00, 0x00, 0x00, 0xdc, 0x9a, 0xff, 0xff,
  0x86, 0x00, 0x00, 0x00, 0x04, 0x00, 0x00, 0x00, 0x13, 0x00, 0x00, 0x00,
  0x43, 0x4f, 0x4e, 0x56, 0x45, 0x52, 0x53, 0x49, 0x4f, 0x4e, 0x5f, 0x4d,
  0x45, 0x54, 0x41, 0x44, 0x41, 0x54, 0x41, 0x00, 0x00, 0x9b, 0xff, 0xff,
  0x85, 0x00, 0x00, 0x00, 0x04, 0x00, 0x00, 0x00, 0x13, 0x00, 0x00, 0x00,
  0x6d, 0x69, 0x6e, 0x5f, 0x72, 0x75, 0x6e, 0x74, 0x69, 0x6d, 0x65, 0x5f,
  0x76, 0x65, 0x72, 0x73, 0x69, 0x6f, 0x6e, 0x00, 0x87, 0x00, 0x00, 0x00,
  0xcc, 0x37, 0x00, 0x00, 0xc4, 0x37, 0x00, 0x00, 0xa8, 0x37, 0x00, 0x00,
  0x8c, 0x37, 0x00, 0x00, 0x70, 0x37, 0x00, 0x00, 0xc0, 0x36, 0x00, 0x00,
  0x30, 0x35, 0x00, 0x00, 0x00, 0x35, 0x00, 0x00, 0xdc, 0x34, 0x00, 0x00,
  0xc8, 0x34, 0x00, 0x00, 0xb4, 0x34, 0x00, 0x00, 0x9c, 0x34, 0x00, 0x00,
  0x88, 0x34, 0x00, 0x00, 0x74, 0x34, 0x00, 0x00, 0x58, 0x34, 0x00, 0x00,
  0x44, 0x34, 0x00, 0x00, 0x3c, 0x34, 0x00, 0x00, 0x34, 0x34, 0x00, 0x00,
  0x1c, 0x34, 0x00, 0x00, 0x14, 0x34, 0x00, 0x00, 0x0c, 0x34, 0x00, 0x00,
  0x04, 0x34, 0x00, 0x00, 0xfc, 0x33, 0x00, 0x00, 0xf4, 0x33, 0x00, 0x00,
  0xec, 0x33, 0x00, 0x00, 0xe4, 0x33, 0x00, 0x00, 0xdc, 0x33, 0x00, 0x00,
  0xd4, 0x33, 0x00, 0x00, 0xcc, 0x33, 0x00, 0x00, 0xc4, 0x33, 0x00, 0x00,
  0xbc, 0x33, 0x00, 0x00, 0xb4, 0x33, 0x00, 0x00, 0xac, 0x33, 0x00, 0x00,
  0xa4, 0x33, 0x00, 0x00, 0x9c, 0x33, 0x00, 0x00, 0x94, 0x33, 0x00, 0x00,
  0x8c, 0x33, 0x00, 0x00, 0x84, 0x33, 0x00, 0x00, 0x7c, 0x33, 0x00, 0x00,
  0x74, 0x33, 0x00, 0x00, 0x6c, 0x33, 0x00, 0x00, 0x64, 0x33, 0x00, 0x00,
  0x5c, 0x33, 0x00, 0x00, 0x54, 0x33, 0x00, 0x00, 0x4c, 0x33, 0x00, 0x00,
  0x44, 0x33, 0x00, 0x00, 0x3c, 0x33, 0x00, 0x00, 0x34, 0x33, 0x00, 0x00,
  0x2c, 0x33, 0x00, 0x00, 0x24, 0x33, 0x00, 0x00, 0x1c, 0x33, 0x00, 0x00,
  0x14, 0x33, 0x00, 0x00, 0x0c, 0x33, 0x00, 0x00, 0x04, 0x33, 0x00, 0x00,
  0xfc, 0x32, 0x00, 0x00, 0xf4, 0x32, 0x00, 0x00, 0xec, 0x32, 0x00, 0x00,
  0xe4, 0x32, 0x00, 0x00, 0xdc, 0x32, 0x00, 0x00, 0xd4, 0x32, 0x00, 0x00,
  0xcc, 0x32, 0x00, 0x00, 0xc4, 0x32, 0x00, 0x00, 0xbc, 0x32, 0x00, 0x00,
  0xb4, 0x32, 0x00, 0x00, 0xac, 0x32, 0x00, 0x00, 0xa4, 0x32, 0x00, 0x00,
  0x9c, 0x32, 0x00, 0x00, 0x8c, 0x29, 0x00, 0x00, 0x7c, 0x19, 0x00, 0x00,
  0x6c, 0x18, 0x00, 0x00, 0x64, 0x18, 0x00, 0x00, 0x5c, 0x18, 0x00, 0x00,
  0x54, 0x18, 0x00, 0x00, 0x4c, 0x18, 0x00, 0x00, 0x44, 0x18, 0x00, 0x00,
  0x3c, 0x18, 0x00, 0x00, 0x34, 0x18, 0x00, 0x00, 0x2c, 0x18, 0x00, 0x00,
  0x24, 0x18, 0x00, 0x00, 0x1c, 0x18, 0x00, 0x00, 0x14, 0x18, 0x00, 0x00,
  0x0c, 0x18, 0x00, 0x00, 0x04, 0x18, 0x00, 0x00, 0xfc, 0x17, 0x00, 0x00,
  0xf4, 0x17, 0x00, 0x00, 0xec, 0x17, 0x00, 0x00, 0xe4, 0x17, 0x00, 0x00,
  0xdc, 0x17, 0x00, 0x00, 0xd4, 0x17, 0x00, 0x00, 0xcc, 0x17, 0x00, 0x00,
  0xc4, 0x17, 0x00, 0x00, 0xbc, 0x17, 0x00, 0x00, 0xb4, 0x17, 0x00, 0x00,
  0xac, 0x17, 0x00, 0x00, 0xa4, 0x17, 0x00, 0x00, 0x9c, 0x17, 0x00, 0x00,
  0x94, 0x17, 0x00, 0x00, 0x8c, 0x17, 0x00, 0x00, 0x84, 0x17, 0x00, 0x00,
  0x7c, 0x17, 0x00, 0x00, 0x74, 0x17, 0x00, 0x00, 0x6c, 0x17, 0x00, 0x00,
  0x64, 0x17, 0x00, 0x00, 0x5c, 0x17, 0x00, 0x00, 0x54, 0x17, 0x00, 0x00,
  0x4c, 0x17, 0x00, 0x00, 0x44, 0x17, 0x00, 0x00, 0x3c, 0x17, 0x00, 0x00,
  0x34, 0x17, 0x00, 0x00, 0x24, 0x0b, 0x00, 0x00, 0x14, 0x02, 0x00, 0x00,
  0x44, 0x01, 0x00, 0x00, 0x3c, 0x01, 0x00, 0x00, 0x34, 0x01, 0x00, 0x00,
  0x2c, 0x01, 0x00, 0x00, 0x24, 0x01, 0x00, 0x00, 0x1c, 0x01, 0x00, 0x00,
  0x14, 0x01, 0x00, 0x00, 0x0c, 0x01, 0x00, 0x00, 0x04, 0x01, 0x00, 0x00,
  0xfc, 0x00, 0x00, 0x00, 0xf4, 0x00, 0x00, 0x00, 0xec, 0x00, 0x00, 0x00,
  0xe4, 0x00, 0x00, 0x00, 0xdc, 0x00, 0x00, 0x00, 0xd4, 0x00, 0x00, 0x00,
  0xcc, 0x00, 0x00, 0x00, 0xc4, 0x00, 0x00, 0x00, 0xbc, 0x00, 0x00, 0x00,
  0xb4, 0x00, 0x00, 0x00, 0xac, 0x00, 0x00, 0x00, 0xa4, 0x00, 0x00, 0x00,
  0x9c, 0x00, 0x00, 0x00, 0x7c, 0x00, 0x00, 0x00, 0x04, 0x00, 0x00, 0x00,
  0x2e, 0x9c, 0xff, 0xff, 0x04, 0x00, 0x00, 0x00, 0x68, 0x00, 0x00, 0x00,
  0x10, 0x00, 0x00, 0x00, 0x00, 0x00, 0x00, 0x00, 0x08, 0x00, 0x0e, 0x00,
  0x08, 0x00, 0x04, 0x00, 0x08, 0x00, 0x00, 0x00, 0x14, 0x00, 0x00, 0x00,
  0x2c, 0x00, 0x00, 0x00, 0x00, 0x00, 0x0a, 0x00, 0x0c, 0x00, 0x08, 0x00,
  0x00, 0x00, 0x07, 0x00, 0x0a, 0x00, 0x00, 0x00, 0x00, 0x00, 0x00, 0x01,
  0x04, 0x00, 0x00, 0x00, 0x00, 0x00, 0x00, 0x00, 0x0c, 0x00, 0x18, 0x00,
  0x14, 0x00, 0x10, 0x00, 0x0c, 0x00, 0x04, 0x00, 0x0c, 0x00, 0x00, 0x00,
  0xa3, 0x7c, 0xc4, 0x8b, 0xd0, 0x82, 0x3e, 0x3f, 0x02, 0x00, 0x00, 0x00,
  0x02, 0x00, 0x00, 0x00, 0x04, 0x00, 0x00, 0x00, 0x06, 0x00, 0x00, 0x00,
  0x32, 0x2e, 0x31, 0x37, 0x2e, 0x31, 0x00, 0x00, 0xa2, 0x9c, 0xff, 0xff,
  0x04, 0x00, 0x00, 0x00, 0x10, 0x00, 0x00, 0x00, 0x31, 0x2e, 0x31, 0x35,
  0x2e, 0x30, 0x00, 0x00, 0x00, 0x00, 0x00, 0x00, 0x00, 0x00, 0x00, 0x00,
  0xa8, 0x89, 0xff, 0xff, 0xac, 0x89, 0xff, 0xff, 0xb0, 0x89, 0xff, 0xff,
  0xb4, 0x89, 0xff, 0xff, 0xb8, 0x89, 0xff, 0xff, 0xbc, 0x89, 0xff, 0xff,
  0xc0, 0x89, 0xff, 0xff, 0xc4, 0x89, 0xff, 0xff, 0xc8, 0x89, 0xff, 0xff,
  0xcc, 0x89, 0xff, 0xff, 0xd0, 0x89, 0xff, 0xff, 0xd4, 0x89, 0xff, 0xff,
  0xd8, 0x89, 0xff, 0xff, 0xdc, 0x89, 0xff, 0xff, 0xe0, 0x89, 0xff, 0xff,
  0xe4, 0x89, 0xff, 0xff, 0xe8, 0x89, 0xff, 0xff, 0xec, 0x89, 0xff, 0xff,
  0xf0, 0x89, 0xff, 0xff, 0xf4, 0x89, 0xff, 0xff, 0xf8, 0x89, 0xff, 0xff,
  0x12, 0x9d, 0xff, 0xff, 0x04, 0x00, 0x00, 0x00, 0xc0, 0x00, 0x00, 0x00,
  0x5a, 0x0e, 0x8a, 0x3d, 0x57, 0x34, 0xc6, 0x3d, 0x75, 0x1b, 0x7e, 0x3e,
  0x5d, 0xfc, 0xbf, 0x3e, 0xba, 0x47, 0xe1, 0x3e, 0xf5, 0x0d, 0x5d, 0x3d,
  0x10, 0x73, 0xb2, 0x3e, 0x03, 0x19, 0xf2, 0x3e, 0x6c, 0x7f, 0xc9, 0x3d,
  0xce, 0x1a, 0x93, 0x3d, 0xbb, 0x87, 0x20, 0x3e, 0x55, 0xda, 0xa3, 0x3d,
  0x50, 0x98, 0x93, 0x3f, 0x53, 0x15, 0x89, 0x3f, 0x19, 0xc5, 0x36, 0x3f,
  0x2a, 0xff, 0x27, 0x3f, 0x2e, 0x0d, 0x1f, 0x3f, 0x68, 0xd9, 0x83, 0x3f,
  0xc1, 0x6f, 0x3a, 0x3f, 0xe4, 0x99, 0x25, 0x3f, 0x38, 0x07, 0x80, 0x3f,
  0x60, 0xc3, 0x86, 0x3f, 0x04, 0x66, 0x8f, 0x3f, 0xb9, 0x14, 0x6d, 0x3f,
  0xe1, 0xf1, 0xaa, 0xbd, 0x76, 0x88, 0x95, 0xbd, 0xd9, 0x40, 0x3c, 0xbd,
  0x21, 0xfc, 0x4a, 0x3c, 0x02, 0x0e, 0xb9, 0xbc, 0x66, 0xf6, 0x45, 0x3d,
  0x51, 0xd4, 0xdf, 0x3d, 0x2a, 0x5c, 0xb9, 0x3c, 0x11, 0xd4, 0x26, 0x3d,
  0xa2, 0xbb, 0xad, 0xbd, 0xe7, 0x5e, 0xfa, 0x3d, 0xa3, 0xe8, 0xf4, 0xbc,
  0x0b, 0x07, 0x90, 0xbd, 0x19, 0x6e, 0xf0, 0xbd, 0x3c, 0x19, 0xb6, 0x3e,
  0xef, 0x68, 0x9f, 0x3e, 0x74, 0x81, 0xa4, 0x3e, 0x04, 0x30, 0xa3, 0xbd,
  0x84, 0x2b, 0xb1, 0x3e, 0x4c, 0xe9, 0xc3, 0x3e, 0x13, 0x31, 0x6c, 0xbe,
  0xf2, 0x6e, 0x23, 0xbd, 0x6e, 0xbd, 0x65, 0x3d, 0x5c, 0xb9, 0x10, 0xbd,
  0xde, 0x9d, 0xff, 0xff, 0x04, 0x00, 0x00, 0x00, 0x00, 0x09, 0x00, 0x00,
  0x12, 0x94, 0xc2, 0xbe, 0x9f, 0xaa, 0xd7, 0xbe, 0x5b, 0x1d, 0xd8, 0x3c,
  0x2d, 0xbf, 0xcc, 0x3d, 0x15, 0xfa, 0xf9, 0x3c, 0xd1, 0xf4, 0x33, 0x3d,
  0x2e, 0x42, 0x89, 0xbe, 0xc5, 0x45, 0xb7, 0xbc, 0xce, 0x85, 0x98, 0xbd,
  0x71, 0x4d, 0xf3, 0xbe, 0x06, 0xec, 0x9a, 0x3e, 0x9d, 0x20, 0x74, 0x3d,
  0xa8, 0x1e, 0x78, 0xbe, 0x18, 0x7a, 0xc6, 0x3d, 0x93, 0xa4, 0x00, 0xbe,
  0xe9, 0x5f, 0x62, 0xbe, 0x17, 0x54, 0x9c, 0xbd, 0x7e, 0xcf, 0xc2, 0x3c,
  0xa0, 0x1d, 0x8b, 0x3b, 0x33, 0x6d, 0x43, 0x3e, 0xb8, 0xfe, 0x8b, 0xbc,
  0x38, 0xe8, 0x54, 0xbe, 0xf0, 0x3f, 0xaa, 0x3e, 0xfb, 0x62, 0xe3, 0x3d,
  0xdc, 0xa1, 0x79, 0xbe, 0x53, 0xa6, 0x69, 0xbe, 0x41, 0xd4, 0x04, 0x3e,
  0xa8, 0x4d, 0x11, 0xbd, 0x0e, 0xeb, 0x01, 0x3e, 0x9a, 0x5b, 0x18, 0x3e,
  0xe8, 0x0f, 0xc5, 0xbe, 0x12, 0x72, 0x6a, 0x3e, 0x5a, 0x9a, 0x9b, 0x3e,
  0x4c, 0x6e, 0xf8, 0xbb, 0x62, 0x9b, 0x69, 0x3e, 0xec, 0xa7, 0x07, 0xbe,
  0x76, 0xb7, 0x71, 0xbe, 0xc6, 0x29, 0xaa, 0xbe, 0xb8, 0x23, 0x5d, 0x3e,
  0x7c, 0xaf, 0x6d, 0xbc, 0x01, 0x13, 0xb3, 0xbe, 0x12, 0x0f, 0x0d, 0x3f,
  0xce, 0x9c, 0xa5, 0x3b, 0x90, 0xc1, 0x49, 0x3e, 0x2a, 0xbb, 0x8b, 0x3e,
  0xc0, 0x97, 0x18, 0xbf, 0xa4, 0xe0, 0x09, 0x3f, 0xaf, 0xcb, 0xc1, 0xbe,
  0x2a, 0x2b, 0xae, 0xbe, 0xb3, 0x1d, 0xf0, 0xbe, 0x63, 0x8f, 0x66, 0x3e,
  0x60, 0xa3, 0x09, 0xbe, 0xcb, 0x06, 0xfb, 0x3c, 0xc5, 0xac, 0xa8, 0x3e,
  0xbd, 0x85, 0x87, 0xbe, 0x7a, 0x10, 0xbe, 0x3e, 0xbe, 0x3e, 0x0f, 0x3f,
  0xc1, 0xea, 0xa8, 0xbe, 0x67, 0x3e, 0xe1, 0x3e, 0x2e, 0xc3, 0x72, 0xbe,
  0x47, 0x99, 0xe3, 0x3d, 0xb7, 0x72, 0x3d, 0xbe, 0xb5, 0x30, 0x84, 0xbc,
  0x21, 0x20, 0x58, 0x3d, 0x2d, 0xf1, 0x07, 0x3d, 0xb4, 0x78, 0x4e, 0x3d,
  0xed, 0xc6, 0x9e, 0x3e, 0x01, 0xc4, 0x6d, 0x3e, 0x7b, 0xb1, 0x6a, 0x3e,
  0x55, 0x6c, 0xc3, 0x3b, 0xe2, 0x47, 0xd1, 0x3e, 0xe9, 0x1b, 0xba, 0xbb,
  0x02, 0x8a, 0x8b, 0xbe, 0xb5, 0x48, 0xd1, 0xbe, 0xaa, 0x9d, 0x85, 0x3c,
  0xa8, 0x0e, 0x32, 0xbe, 0xd4, 0x50, 0xf4, 0xbc, 0x7e, 0x3c, 0xb9, 0x3e,
  0x16, 0xbd, 0xc9, 0xbd, 0xe0, 0x24, 0xb3, 0x3e, 0x72, 0x43, 0x94, 0x3e,
  0x70, 0x3c, 0x91, 0xbe, 0x47, 0xe1, 0xdc, 0x3e, 0x38, 0xab, 0x53, 0xbd,
  0xdc, 0xa9, 0x11, 0xbf, 0xa9, 0x78, 0xfe, 0xbe, 0x5d, 0x72, 0x57, 0x3e,
  0xf0, 0x74, 0x2e, 0xbe, 0x6a, 0x37, 0x94, 0xbe, 0x06, 0xcc, 0xdf, 0x3e,
  0xd6, 0x2b, 0x15, 0xbe, 0xd4, 0x0f, 0x9a, 0x3e, 0xa9, 0x6e, 0x3f, 0x3e,
  0x16, 0x25, 0x86, 0xbe, 0x87, 0xe7, 0xc4, 0x3e, 0xd8, 0x03, 0xec, 0xbe,
  0xc3, 0x72, 0xee, 0xbd, 0x2c, 0x5c, 0xe1, 0xbd, 0xfa, 0xff, 0x64, 0x3e,
  0x56, 0x74, 0x92, 0xbc, 0x74, 0xbd, 0x4b, 0xbc, 0xd5, 0xa8, 0xaa, 0x3e,
  0x3d, 0x61, 0x9a, 0x3e, 0x4c, 0xa0, 0x1a, 0x3e, 0x42, 0x58, 0x70, 0xbd,
  0xeb, 0x8a, 0x5a, 0xbe, 0x4e, 0xc9, 0xca, 0x3c, 0x81, 0x64, 0xdb, 0xbd,
  0x17, 0x7b, 0x03, 0xbe, 0x7b, 0x3f, 0xbb, 0x3d, 0xa3, 0x3e, 0x08, 0xbe,
  0xb0, 0x66, 0x71, 0xbe, 0xd3, 0x37, 0x89, 0x3d, 0xbf, 0x70, 0x21, 0x3e,
  0x29, 0xc8, 0x2a, 0x3d, 0x75, 0xa2, 0x2c, 0x3c, 0x28, 0xd1, 0x37, 0xbd,
  0xb5, 0x28, 0x75, 0xbe, 0x53, 0xca, 0x37, 0x3e, 0xf5, 0xff, 0x6d, 0xbd,
  0x90, 0x5d, 0x9a, 0xbe, 0x60, 0xd2, 0xcc, 0xbe, 0x98, 0x8d, 0x62, 0x3b,
  0xc7, 0xb5, 0xdf, 0xbe, 0x1c, 0x29, 0x73, 0x3e, 0xa5, 0x66, 0x2f, 0xbd,
  0x66, 0x12, 0x6a, 0xbe, 0xf1, 0x54, 0xd5, 0x3e, 0x00, 0x94, 0xa8, 0x3e,
  0x79, 0x60, 0x5e, 0xbe, 0xa8, 0x66, 0x44, 0x3e, 0xc2, 0xda, 0x0b, 0xbe,
  0xe8, 0x56, 0xe1, 0xbd, 0x6d, 0x43, 0x0f, 0xbe, 0x8a, 0xb5, 0x48, 0x3e,
  0x18, 0x56, 0x51, 0xbe, 0xd4, 0xa3, 0xc8, 0xbd, 0xe9, 0x11, 0xdf, 0x3d,
  0x68, 0xa5, 0x1a, 0xbd, 0x00, 0xb4, 0x90, 0x3b, 0x7e, 0x0e, 0x10, 0x3e,
  0xc9, 0x56, 0x03, 0xbe, 0x18, 0x2e, 0x90, 0x3e, 0xf9, 0xc0, 0x61, 0x3d,
  0x7b, 0xc7, 0x31, 0xbe, 0xa8, 0xa1, 0x04, 0xbe, 0x0c, 0x26, 0x7c, 0x3e,
  0x01, 0xb3, 0x06, 0xbd, 0x1f, 0x9b, 0x75, 0x3d, 0x30, 0xb7, 0x22, 0x3e,
  0x19, 0x3b, 0xe5, 0xb9, 0x3a, 0xcf, 0x23, 0x3e, 0x71, 0x91, 0xa7, 0x3e,
  0x03, 0xf6, 0xb6, 0x3d, 0x63, 0xdb, 0xa1, 0x3d, 0x74, 0x11, 0x9c, 0xbe,
  0xf6, 0x91, 0xeb, 0xbe, 0xe3, 0xf8, 0xdc, 0x3c, 0x79, 0xe0, 0x33, 0x3e,
  0x2e, 0x74, 0xf3, 0xbd, 0xb9, 0x94, 0xa2, 0xbe, 0x56, 0x56, 0xd0, 0x3d,
  0xcc, 0xd2, 0xf0, 0x3d, 0x36, 0x5c, 0x00, 0xbe, 0xed, 0x08, 0xa4, 0xba,
  0xa7, 0xde, 0x3d, 0x3c, 0x71, 0x72, 0xac, 0x3e, 0x27, 0xf0, 0xc1, 0xbe,
  0x0f, 0x34, 0x03, 0x3e, 0xd8, 0x8c, 0x89, 0x3e, 0x58, 0x4d, 0xcb, 0xbd,
  0x4a, 0x68, 0x40, 0xbd, 0xe1, 0x0f, 0xbe, 0x3e, 0x09, 0xc6, 0x33, 0xbd,
  0x37, 0x34, 0x59, 0x3d, 0x9a, 0x28, 0x96, 0xbe, 0x50, 0xf9, 0x90, 0xbe,
  0xb1, 0xd8, 0xaf, 0x3e, 0x81, 0xea, 0x76, 0xbe, 0x6f, 0xd4, 0x9c, 0x3e,
  0xa2, 0x29, 0xd5, 0x3e, 0x53, 0xe1, 0xc2, 0x3e, 0x79, 0xba, 0x71, 0xbe,
  0x9c, 0xa3, 0xaa, 0x3d, 0x4f, 0xfa, 0x83, 0x3c, 0xbe, 0x9e, 0x9b, 0xbe,
  0x7e, 0xfa, 0x87, 0x3d, 0x49, 0xdb, 0xc5, 0xbd, 0x45, 0xce, 0x32, 0xbf,
  0x32, 0xeb, 0x84, 0x3e, 0xf8, 0x49, 0x09, 0xbf, 0x4a, 0x4e, 0xcb, 0x3d,
  0xd6, 0xb0, 0x85, 0x3e, 0x1d, 0xb6, 0x1a, 0x3f, 0x88, 0xe1, 0xd2, 0xbe,
  0xf9, 0x46, 0x8d, 0x3e, 0x84, 0x28, 0xa1, 0x3e, 0xb6, 0x26, 0x44, 0xbe,
  0x87, 0xe6, 0x85, 0x3e, 0x83, 0x03, 0x34, 0xbe, 0xc4, 0x7b, 0x1b, 0xbf,
  0x88, 0x58, 0xb1, 0x3e, 0xcd, 0xd9, 0x90, 0xbe, 0x75, 0x54, 0xe6, 0x3e,
  0x68, 0xe6, 0x2a, 0xbe, 0xab, 0x59, 0x15, 0xbe, 0xee, 0x05, 0x9c, 0xbe,
  0x01, 0x6a, 0xde, 0xbd, 0xa8, 0x6f, 0x9e, 0x3d, 0x94, 0xf9, 0xd8, 0x3d,
  0xc7, 0x77, 0x96, 0xbd, 0xb8, 0x13, 0x75, 0x3d, 0x9a, 0x14, 0x24, 0x3b,
  0xe3, 0xac, 0xaa, 0xbc, 0xaf, 0xd7, 0xa6, 0xbd, 0x5c, 0x54, 0x8a, 0x3d,
  0xa6, 0x36, 0xb8, 0x3e, 0x5d, 0x71, 0x24, 0x3e, 0xa3, 0xad, 0xdb, 0xbd,
  0x1a, 0x22, 0x49, 0xbe, 0x35, 0xfb, 0x01, 0xbe, 0xa9, 0xa4, 0x40, 0xbe,
  0x7f, 0xeb, 0x40, 0x3e, 0x0f, 0x71, 0x49, 0xbe, 0x28, 0x1d, 0xdb, 0xbe,
  0x56, 0xf0, 0xbe, 0x3e, 0x3f, 0x84, 0x1f, 0xbf, 0xba, 0x6c, 0xc3, 0x3e,
  0x1e, 0xd7, 0xb1, 0x3e, 0xea, 0x80, 0x3c, 0x3e, 0x26, 0x29, 0x5b, 0xbd,
  0xbf, 0x5d, 0xa5, 0x3e, 0x1f, 0x5d, 0x0a, 0xbe, 0x88, 0x69, 0x99, 0xbe,
  0xbe, 0xe6, 0x76, 0x3e, 0xbf, 0x8a, 0x62, 0xbe, 0x30, 0xc8, 0xe1, 0xbe,
  0xf8, 0x6c, 0xf2, 0x3e, 0xb9, 0xd8, 0x50, 0xbe, 0xad, 0x5e, 0xb3, 0x3e,
  0xa8, 0x4a, 0x33, 0xbe, 0x76, 0x93, 0xa5, 0x3d, 0x8c, 0x51, 0xa2, 0x3e,
  0x8c, 0xfc, 0xa0, 0x3c, 0x20, 0x69, 0x93, 0x3d, 0x15, 0x14, 0xf8, 0x3d,
  0x93, 0x0e, 0xa7, 0x3d, 0x6a, 0xf3, 0xc8, 0x3a, 0x39, 0x26, 0x81, 0x3e,
  0x2d, 0x2c, 0xb5, 0xbd, 0x97, 0xaa, 0x0d, 0xbd, 0xff, 0x32, 0x8f, 0xbd,
  0x64, 0xc3, 0xff, 0x3d, 0x03, 0xf4, 0xbd, 0xbe, 0xfe, 0x0e, 0xe4, 0xbd,
  0xb2, 0x3a, 0x89, 0xbd, 0x72, 0xa2, 0x2d, 0x3e, 0xf7, 0x37, 0xa3, 0xbc,
  0xed, 0x45, 0xa1, 0xbe, 0xd0, 0x10, 0xda, 0x3b, 0xe2, 0x24, 0xc8, 0xbd,
  0xea, 0x58, 0x90, 0xbd, 0x54, 0xbb, 0xa9, 0x3e, 0xc9, 0xaa, 0x9e, 0xbe,
  0x18, 0x05, 0x0f, 0xbf, 0x9f, 0x9d, 0x57, 0xbe, 0xeb, 0xd0, 0x2b, 0x3e,
  0xe1, 0x44, 0x12, 0xbe, 0xed, 0x78, 0x3a, 0x3e, 0x95, 0x78, 0xb3, 0xbd,
  0x67, 0xa9, 0xe8, 0xbd, 0x85, 0x8b, 0xa4, 0x3c, 0x5d, 0x59, 0x5b, 0x3e,
  0xa0, 0xa7, 0x5c, 0xbd, 0x0f, 0x10, 0x7d, 0xbc, 0x47, 0xca, 0xc6, 0xbd,
  0x7a, 0x9e, 0x7e, 0x3e, 0x77, 0xbb, 0x6a, 0x3e, 0x35, 0x96, 0x70, 0xbd,
  0xee, 0xfb, 0x80, 0x3d, 0x06, 0x86, 0x4b, 0xbc, 0xf5, 0xd2, 0x1f, 0xbe,
  0x50, 0x47, 0x0b, 0x3d, 0x17, 0x19, 0x94, 0x3d, 0x62, 0xf7, 0xdd, 0xbd,
  0x5c, 0x5a, 0xfc, 0x3d, 0xed, 0x4c, 0x4f, 0xbe, 0xe7, 0x69, 0xc7, 0xbd,
  0xef, 0xca, 0x14, 0x3e, 0xe9, 0x8d, 0x94, 0x3e, 0x86, 0x87, 0xe0, 0x3c,
  0xd8, 0x26, 0x57, 0xbc, 0xea, 0x86, 0x83, 0x3e, 0x10, 0xe4, 0xe9, 0xbd,
  0x32, 0x7f, 0x8f, 0x3e, 0xbc, 0x84, 0x9a, 0xbe, 0xc2, 0x66, 0x16, 0xbe,
  0xec, 0x19, 0xf3, 0x3d, 0xd0, 0xd5, 0x2f, 0xbe, 0xb2, 0x48, 0x00, 0x3e,
  0xa1, 0x4f, 0xd6, 0x3b, 0x9c, 0xbc, 0x2d, 0x3e, 0x8d, 0x2a, 0x84, 0xbe,
  0x63, 0x59, 0x0f, 0x3e, 0xdb, 0x7f, 0x19, 0xbe, 0xcd, 0xc0, 0x8b, 0xbd,
  0x88, 0x54, 0x4f, 0xbc, 0x0b, 0x9b, 0x28, 0x3e, 0x1b, 0xca, 0x92, 0xbd,
  0xfa, 0x87, 0x53, 0x3c, 0xab, 0x89, 0x60, 0xbe, 0x5b, 0xb1, 0xd9, 0x3d,
  0x48, 0x14, 0x39, 0xbe, 0xa4, 0xc8, 0x0f, 0x3e, 0x15, 0xcc, 0xc8, 0xbe,
  0xef, 0x3b, 0x04, 0xbe, 0x45, 0x02, 0xc1, 0xbd, 0x2d, 0x75, 0x88, 0xbd,
  0x6c, 0xdb, 0xd6, 0xbc, 0x42, 0x8b, 0x2a, 0x3e, 0x9d, 0xa8, 0x0e, 0x3e,
  0xe4, 0xa6, 0xe4, 0x3d, 0x20, 0x87, 0x2e, 0x3d, 0x91, 0x97, 0xdc, 0xbd,
  0x32, 0x85, 0xbb, 0x3d, 0x72, 0x2c, 0x87, 0x3d, 0xde, 0x43, 0x85, 0xbe,
  0xc6, 0x97, 0xa6, 0xbe, 0xef, 0xb4, 0xec, 0x3d, 0xbf, 0x29, 0x82, 0x3d,
  0xf4, 0xc5, 0xcd, 0x3d, 0x5f, 0xba, 0x4d, 0xbd, 0xa6, 0x9b, 0x4b, 0x3e,
  0x88, 0xdd, 0xed, 0x3a, 0xaf, 0x5e, 0x99, 0x3c, 0xf3, 0xe6, 0x24, 0x3e,
  0x8e, 0x6f, 0xeb, 0x3a, 0xda, 0xef, 0x84, 0x3d, 0x80, 0xcc, 0x80, 0xbd,
  0xa4, 0x7c, 0xd8, 0x3d, 0xca, 0xec, 0x53, 0xbe, 0x13, 0x28, 0x04, 0xbd,
  0xf5, 0x40, 0x37, 0x3d, 0x2b, 0x38, 0x06, 0xbe, 0x0c, 0xa0, 0x26, 0xbb,
  0x29, 0xd3, 0x62, 0xbd, 0xba, 0x08, 0x91, 0x3d, 0x7a, 0x99, 0x07, 0x3e,
  0x59, 0xe2, 0xad, 0xbe, 0x55, 0xac, 0xb8, 0x3b, 0x94, 0xe9, 0xb0, 0xbc,
  0x20, 0xce, 0x08, 0x3e, 0x5f, 0x02, 0xc1, 0x3d, 0xa7, 0xe6, 0x8e, 0x3d,
  0x15, 0xb7, 0x03, 0xbd, 0xda, 0x8d, 0x46, 0x3e, 0x3e, 0x2d, 0x44, 0xbd,
  0x87, 0xab, 0x5e, 0x3d, 0xb2, 0xa6, 0x6a, 0x3d, 0x46, 0xdd, 0x22, 0x3d,
  0xb9, 0xbb, 0xe7, 0xbd, 0x77, 0xf1, 0x96, 0x3d, 0xe1, 0x15, 0x05, 0xbe,
  0x0e, 0x9b, 0x30, 0x3e, 0x16, 0x3b, 0xe0, 0x3d, 0xba, 0x7d, 0x5e, 0xbe,
  0x9f, 0x1e, 0x8c, 0xbe, 0xe9, 0x55, 0x6c, 0xbe, 0x72, 0xe1, 0x46, 0x3e,
  0xfb, 0x37, 0x34, 0x3d, 0x79, 0xa9, 0x55, 0x3d, 0xb1, 0x97, 0x93, 0xbd,
  0x78, 0x62, 0x72, 0xbc, 0xaa, 0x4a, 0x0b, 0xbe, 0xea, 0x23, 0x87, 0xbd,
  0x42, 0x10, 0x0c, 0x3e, 0x9e, 0xf0, 0xa9, 0xbe, 0x50, 0xda, 0x54, 0xbe,
  0xbd, 0x8c, 0x96, 0x3d, 0xdf, 0x97, 0x51, 0xbe, 0x3e, 0x75, 0x16, 0x3e,
  0xb2, 0x34, 0x01, 0x3e, 0xcb, 0xaf, 0x13, 0xbe, 0x80, 0xdf, 0x06, 0x3b,
  0x79, 0x5c, 0x3f, 0xbc, 0xb2, 0x5f, 0xfc, 0x3c, 0x2a, 0x35, 0x86, 0x3e,
  0x01, 0x27, 0x0c, 0xbe, 0x7a, 0x91, 0x2c, 0xbe, 0x7e, 0xe1, 0xc5, 0xbe,
  0x4a, 0x26, 0x6a, 0x3d, 0x6d, 0xe6, 0x19, 0x3e, 0xd0, 0x1a, 0x68, 0xbc,
  0xd2, 0x31, 0x9b, 0xbe, 0xd0, 0xec, 0x11, 0x3b, 0x83, 0xc0, 0x8e, 0x3e,
  0x53, 0xe9, 0x5a, 0xbd, 0xa0, 0x12, 0x0d, 0xbd, 0x3c, 0x00, 0x82, 0xbe,
  0xa5, 0xed, 0x33, 0x3e, 0xc5, 0xaf, 0xd6, 0xbd, 0xbb, 0xa2, 0x96, 0x3d,
  0xa4, 0xf6, 0xe7, 0xbc, 0xb0, 0x9f, 0xd1, 0xbd, 0x43, 0x4c, 0x0d, 0xbe,
  0x07, 0xc6, 0x6f, 0x3d, 0xea, 0x70, 0x74, 0xbe, 0x9c, 0x2e, 0xa3, 0x3e,
  0x50, 0x2d, 0x8e, 0xbd, 0x56, 0x0c, 0x30, 0xbe, 0x50, 0x7b, 0xbf, 0x3d,
  0xb4, 0x69, 0x97, 0x3d, 0xce, 0x5e, 0x1d, 0x3e, 0x37, 0x8b, 0x6d, 0xbd,
  0x05, 0xcf, 0x3c, 0xbe, 0xeb, 0xab, 0xb0, 0x3e, 0x45, 0xbb, 0x88, 0x3c,
  0x8a, 0x19, 0x67, 0xbe, 0xf5, 0x0a, 0x2a, 0x3e, 0x3c, 0xa9, 0x20, 0xbe,
  0x0e, 0x36, 0xa8, 0x3d, 0xd2, 0x82, 0x5b, 0x3e, 0xe3, 0x94, 0x46, 0xbd,
  0x8e, 0xce, 0xbe, 0x3d, 0x66, 0x70, 0x1c, 0xbe, 0x3b, 0xc3, 0x10, 0xbe,
  0x6f, 0x15, 0x23, 0xbe, 0x38, 0x9e, 0x01, 0x3e, 0x2b, 0xa3, 0x9c, 0xbc,
  0x9d, 0x6c, 0x32, 0xbd, 0x5c, 0x65, 0x82, 0xbc, 0x7d, 0x6a, 0x2a, 0xbe,
  0xb3, 0xc3, 0xa8, 0xbc, 0xe6, 0x39, 0xd0, 0xbd, 0xfe, 0xd2, 0xcd, 0x3d,
  0xdf, 0x52, 0xaf, 0xbe, 0x66, 0x49, 0xef, 0x3d, 0x2b, 0x77, 0x2d, 0xbd,
  0xa2, 0xe0, 0x43, 0x3d, 0xdd, 0x74, 0xde, 0x3b, 0x1d, 0xfc, 0x3b, 0x3d,
  0xbe, 0x6e, 0x2d, 0x3e, 0x88, 0x98, 0x0d, 0xbe, 0x31, 0xd1, 0x97, 0x3d,
  0xf0, 0xc4, 0x50, 0x3e, 0xee, 0x9f, 0x6c, 0xbd, 0x63, 0x4c, 0xd0, 0x3d,
  0xeb, 0xbb, 0xf3, 0x3c, 0xab, 0x95, 0xeb, 0xbd, 0xca, 0x41, 0x48, 0x3e,
  0x73, 0xf6, 0x90, 0xbc, 0xe9, 0x44, 0x4f, 0xbe, 0xe1, 0x35, 0x12, 0xbe,
  0xbf, 0x08, 0x66, 0x3d, 0xd0, 0xb8, 0xc7, 0xbe, 0xca, 0x39, 0x9f, 0x3d,
  0x1e, 0xf9, 0xc9, 0xbe, 0xb4, 0xae, 0xf2, 0xbe, 0x07, 0x4f, 0x23, 0x3e,
  0x8e, 0x55, 0x68, 0xbe, 0xc6, 0xf2, 0x3f, 0x3d, 0x56, 0xbc, 0x3c, 0x3e,
  0x16, 0x54, 0x70, 0xbe, 0xb0, 0x46, 0xd9, 0x3e, 0x2b, 0x28, 0x0b, 0x3e,
  0x11, 0xbb, 0x26, 0xbe, 0xbf, 0x69, 0x98, 0x3e, 0xd9, 0x65, 0xe6, 0xbe,
  0xce, 0x8e, 0xec, 0xbe, 0x1a, 0xfd, 0xba, 0xbe, 0x82, 0x93, 0xb0, 0x3c,
  0x0d, 0xab, 0xef, 0x3c, 0x9d, 0xe0, 0xcd, 0xbd, 0x10, 0xd9, 0x32, 0x3e,
  0xa4, 0x7b, 0x8e, 0xbe, 0x09, 0x9f, 0x88, 0x3d, 0x42, 0x6c, 0x03, 0x3e,
  0x35, 0x3e, 0x84, 0xbe, 0xec, 0x66, 0xa2, 0x3e, 0x0c, 0x56, 0x05, 0xbf,
  0x7e, 0x99, 0xc9, 0xbe, 0xa2, 0x3f, 0xc6, 0xbe, 0x19, 0x80, 0x3d, 0x3e,
  0x79, 0x04, 0x19, 0xbe, 0x64, 0x0a, 0x87, 0xbd, 0x14, 0x5a, 0xfa, 0x3e,
  0x32, 0xca, 0x4d, 0xbe, 0xf2, 0x4b, 0x87, 0x3e, 0x18, 0x71, 0x05, 0x3f,
  0x19, 0x8b, 0xb9, 0xbe, 0xfe, 0x12, 0xe0, 0x3e, 0x15, 0x5b, 0x0d, 0xbf,
  0xda, 0x4b, 0x59, 0x3e, 0xb3, 0x42, 0xb6, 0x3c, 0xf9, 0x74, 0x5b, 0x3e,
  0x15, 0xb6, 0x11, 0x3e, 0xcb, 0x57, 0x4c, 0x3e, 0xba, 0x26, 0xed, 0x3d,
  0xcc, 0x98, 0x76, 0xbd, 0x0e, 0x06, 0x59, 0x3e, 0xd5, 0xd6, 0x7d, 0xbd,
  0xcb, 0x3e, 0x96, 0x3d, 0xf0, 0x32, 0xa9, 0xbd, 0x34, 0x6c, 0x3b, 0x3e,
  0x89, 0xfb, 0x1b, 0xbf, 0x78, 0xc2, 0x2b, 0xbf, 0x0c, 0x7a, 0x17, 0xbe,
  0x10, 0x3e, 0x66, 0x3d, 0x78, 0x1f, 0x15, 0xbd, 0xa5, 0xec, 0xaf, 0x3e,
  0x47, 0x4b, 0x4c, 0xbe, 0x08, 0xe1, 0xfb, 0x3e, 0x89, 0xff, 0x1c, 0x3f,
  0xb2, 0x50, 0x04, 0xbf, 0x40, 0x80, 0x90, 0x3e, 0xca, 0x8a, 0xf2, 0xbe,
  0x3b, 0x27, 0xd2, 0xbe, 0x68, 0x87, 0x15, 0xbf, 0x66, 0x67, 0x7c, 0x3e,
  0x7d, 0xa7, 0x79, 0x3d, 0x8b, 0x87, 0xdd, 0xbe, 0xfb, 0x50, 0xfc, 0x3e,
  0x7d, 0xa2, 0x83, 0x3d, 0x4e, 0x86, 0xff, 0x3c, 0x64, 0x1c, 0x6e, 0x3e,
  0x22, 0xa8, 0xf4, 0xbe, 0xb1, 0x28, 0x1e, 0x3f, 0x45, 0xda, 0xaf, 0xbe,
  0x4c, 0x8a, 0x45, 0x3e, 0xb0, 0x1e, 0xa7, 0x3e, 0x4e, 0xc0, 0xb9, 0x3c,
  0x2d, 0x57, 0x8f, 0xbd, 0xfe, 0x66, 0xd5, 0xbd, 0xd0, 0xc6, 0xd7, 0x3c,
  0x3a, 0x54, 0xf1, 0xbd, 0x3e, 0xfc, 0x9d, 0x3d, 0x0d, 0xe7, 0x17, 0xbe,
  0x12, 0x89, 0x18, 0x3f, 0xe0, 0xbf, 0x01, 0x3c, 0xc7, 0x07, 0x9c, 0x3e,
  0x3e, 0x45, 0x20, 0xbe, 0xb5, 0x75, 0x1a, 0x3d, 0x37, 0xa6, 0xc9, 0x3c,
  0x24, 0x5f, 0x58, 0x3c, 0xf3, 0xfb, 0x34, 0x3e, 0xd1, 0x78, 0xaf, 0xbb,
  0xa4, 0x75, 0x44, 0x3e, 0x47, 0x63, 0xd4, 0x3e, 0xf6, 0xd8, 0xbe, 0xbd,
  0xbe, 0x4e, 0xab, 0x3a, 0xa2, 0x5c, 0x25, 0xbe, 0x44, 0xe8, 0x3b, 0x3d,
  0x5d, 0x6b, 0x5c, 0xbd, 0xdf, 0x2b, 0x6e, 0xbd, 0x29, 0x57, 0x2d, 0x3d,
  0x31, 0x80, 0x70, 0xbd, 0x5d, 0x7b, 0x6e, 0xbe, 0xf5, 0xae, 0x42, 0x3e,
  0x8c, 0x7e, 0xbd, 0xbe, 0xab, 0x97, 0x05, 0x3e, 0x1e, 0x44, 0x0d, 0x3e,
  0x9b, 0xbe, 0xd9, 0x3d, 0x44, 0xd0, 0x47, 0x3d, 0x2f, 0x91, 0x70, 0x3d,
  0xb2, 0xa9, 0x8a, 0xbd, 0xfb, 0xba, 0x98, 0xbe, 0xaa, 0xa2, 0x51, 0xbd,
  0xfa, 0x8d, 0x2a, 0x3e, 0xf1, 0x35, 0x0e, 0xbe, 0x5d, 0x26, 0x2a, 0xbe,
  0x25, 0x43, 0x15, 0x3e, 0xee, 0x0d, 0xfc, 0xbd, 0xc9, 0x4d, 0x79, 0x3e,
  0x98, 0xa5, 0x30, 0x3e, 0xe9, 0x95, 0x40, 0x3d, 0x16, 0x86, 0xdb, 0x3d,
  0xea, 0xa6, 0xff, 0xff, 0x04, 0x00, 0x00, 0x00, 0x00, 0x0c, 0x00, 0x00,
  0x35, 0xcf, 0xa4, 0x3e, 0xf8, 0x42, 0x87, 0xbd, 0x66, 0xc5, 0x89, 0x3d,
  0x6a, 0xcf, 0x71, 0xbd, 0x14, 0xb4, 0x87, 0x3e, 0xa4, 0x97, 0x83, 0x3e,
  0xc5, 0x66, 0x86, 0x3e, 0xa0, 0xb8, 0x09, 0xbe, 0x07, 0x8f, 0xa6, 0xbe,
  0xfc, 0x0b, 0x8b, 0x3e, 0x7a, 0xc3, 0x89, 0x3d, 0x1f, 0x37, 0x84, 0xbe,
  0xf9, 0x5e, 0x5e, 0xbe, 0x9f, 0xd3, 0x84, 0xbb, 0xe5, 0xe5, 0xe2, 0x3d,
  0xf2, 0x64, 0x9b, 0xbc, 0xba, 0x02, 0x86, 0x3d, 0xa2, 0xf1, 0x66, 0xbd,
  0x80, 0x7c, 0x95, 0x3e, 0x35, 0xc0, 0xa4, 0xbe, 0x6a, 0xf4, 0x8f, 0x3e,
  0xda, 0xbf, 0xed, 0xbd, 0x84, 0xe6, 0x12, 0x3d, 0xeb, 0x5d, 0x65, 0x3c,
  0xd3, 0x72, 0x99, 0x3e, 0x4c, 0xc9, 0x09, 0xbe, 0x66, 0x9f, 0x05, 0xbd,
  0x8b, 0x3d, 0x9c, 0xbd, 0xe3, 0xd1, 0x7b, 0x3d, 0x0f, 0x90, 0x41, 0x3e,
  0x1b, 0xa3, 0x99, 0x3e, 0x81, 0x5f, 0x48, 0xbe, 0xa2, 0x52, 0x65, 0x3e,
  0xd9, 0xf5, 0x1e, 0xbe, 0x14, 0xd9, 0x9a, 0xbd, 0xcd, 0xd2, 0x0c, 0xbf,
  0x5b, 0xeb, 0x22, 0xbe, 0x3f, 0x30, 0xe7, 0xbe, 0x7d, 0x86, 0x92, 0x3e,
  0x89, 0x7f, 0x2f, 0xbf, 0x60, 0x58, 0x1f, 0x3f, 0xd5, 0x76, 0x95, 0x3c,
  0x3f, 0x7b, 0x70, 0xbe, 0x50, 0x8f, 0xf3, 0xbe, 0x0c, 0x89, 0xb4, 0x3c,
  0x89, 0xa4, 0xf7, 0x3e, 0xac, 0xb1, 0x0e, 0xbe, 0xe6, 0x80, 0xd3, 0x3e,
  0x67, 0x9d, 0x4d, 0xbd, 0xc3, 0xcf, 0xbb, 0xbc, 0xf4, 0x53, 0x26, 0xbe,
  0x81, 0x5e, 0x3c, 0xbe, 0xe9, 0xed, 0x83, 0xbd, 0xc8, 0x19, 0xbf, 0x3e,
  0x51, 0x50, 0x41, 0x3e, 0x7e, 0x85, 0x00, 0x3f, 0x9f, 0xfe, 0xd3, 0xbd,
  0x01, 0xbe, 0x00, 0x3e, 0xf2, 0x41, 0x45, 0xbf, 0x9b, 0x58, 0x37, 0xbe,
  0x1f, 0x33, 0x14, 0xbd, 0xde, 0x3e, 0x27, 0x3e, 0x10, 0x22, 0x35, 0xbf,
  0x1b, 0xc6, 0x97, 0xbd, 0xd8, 0x1d, 0x65, 0xbe, 0xf6, 0xd8, 0x1b, 0x3d,
  0x10, 0xf2, 0x49, 0xbe, 0xd7, 0x77, 0x8b, 0xbe, 0xc1, 0xaf, 0x8f, 0xbe,
  0x47, 0x1b, 0x52, 0x3e, 0xc1, 0x32, 0xdc, 0x3d, 0x77, 0x59, 0xcc, 0x3e,
  0x90, 0xe6, 0xf8, 0x3e, 0xfa, 0xea, 0x90, 0xbe, 0x5f, 0xdb, 0x18, 0xbf,
  0x75, 0xcc, 0xde, 0x3a, 0x94, 0xe3, 0xef, 0x3c, 0x7c, 0x33, 0x0b, 0xbd,
  0x05, 0xfe, 0xcf, 0xbe, 0x0e, 0x68, 0x9a, 0x3d, 0x1b, 0x91, 0x11, 0x3e,
  0x03, 0xc9, 0xa1, 0x3b, 0x72, 0x35, 0xac, 0xbd, 0xbb, 0xed, 0xd8, 0xbc,
  0xa5, 0x02, 0x6a, 0xbe, 0x3e, 0xed, 0x47, 0xbe, 0xbb, 0xd8, 0xc7, 0x3e,
  0x40, 0x45, 0x26, 0x3e, 0x4e, 0xdf, 0x88, 0xbe, 0xfd, 0x61, 0x69, 0xbe,
  0xb8, 0x83, 0x7c, 0xbe, 0xbe, 0xd1, 0x11, 0xbd, 0x3a, 0x2a, 0x38, 0x3d,
  0x92, 0x73, 0xbf, 0x3d, 0xef, 0x29, 0xbc, 0xbe, 0x9c, 0xc5, 0xaf, 0x3e,
  0xc3, 0x36, 0xaf, 0xbd, 0x22, 0x5e, 0x95, 0x3d, 0x07, 0xb1, 0x43, 0xbe,
  0x48, 0x7b, 0x42, 0xbf, 0x1c, 0x96, 0x54, 0xbd, 0x0d, 0x6e, 0x02, 0xbe,
  0x0d, 0xdd, 0xa6, 0x3e, 0x17, 0x9c, 0x91, 0x3d, 0x00, 0xd7, 0x04, 0x3f,
  0x1e, 0xb3, 0x0a, 0xbd, 0x67, 0x5c, 0x70, 0xbe, 0x54, 0x1a, 0x6e, 0x3d,
  0x28, 0x43, 0x29, 0xbe, 0xfe, 0x5d, 0xf3, 0x3e, 0x77, 0xad, 0x95, 0x3e,
  0x18, 0xc1, 0x68, 0x3e, 0xb1, 0x3e, 0x9a, 0x3d, 0x37, 0x47, 0x09, 0xbe,
  0x1d, 0x8c, 0xdf, 0xbe, 0x19, 0x28, 0xf5, 0xbe, 0x6b, 0x77, 0x4e, 0x3e,
  0xd6, 0x0b, 0x4f, 0xbe, 0x95, 0x7a, 0x96, 0x3e, 0x65, 0x9b, 0x27, 0x3f,
  0x1a, 0xd8, 0x1c, 0x3f, 0x29, 0xe2, 0x8f, 0xbe, 0x56, 0x1b, 0x6b, 0x3b,
  0x84, 0xaf, 0xa9, 0x3e, 0x63, 0xd9, 0x88, 0xbe, 0xbe, 0xb1, 0x9b, 0x3e,
  0x5c, 0x80, 0xe5, 0x3e, 0xb5, 0x73, 0xb7, 0xba, 0x8b, 0x96, 0xe2, 0x3c,
  0xfe, 0x85, 0xb1, 0xbd, 0x81, 0x88, 0x75, 0x3d, 0xbd, 0x0f, 0x5c, 0x3d,
  0x1a, 0x40, 0x9f, 0x3e, 0x79, 0xa6, 0xa6, 0xbe, 0xe9, 0x47, 0x93, 0x3c,
  0x65, 0x9c, 0xfb, 0xbb, 0x56, 0x25, 0x1b, 0x3e, 0x38, 0x34, 0xc8, 0x3d,
  0xa4, 0xa8, 0x0c, 0x3e, 0x3a, 0x72, 0x03, 0x3d, 0xf6, 0x62, 0xf7, 0x3d,
  0x2e, 0x76, 0x91, 0x3e, 0x87, 0x40, 0xdd, 0x3d, 0xb0, 0x9d, 0xc3, 0x3e,
  0xd1, 0xb1, 0x79, 0x3e, 0xdd, 0xca, 0x98, 0x3d, 0x04, 0x62, 0xc6, 0x3d,
  0x6b, 0x5a, 0x0a, 0xbe, 0xbc, 0x31, 0xb3, 0x3a, 0x3b, 0x81, 0x2f, 0xbe,
  0xc9, 0x70, 0xa2, 0x3d, 0xb6, 0x8c, 0xb1, 0xbe, 0xfd, 0xd6, 0xc3, 0x3d,
  0xc1, 0xfd, 0x88, 0xbd, 0xbe, 0x92, 0x58, 0xbe, 0x69, 0x49, 0x39, 0xbe,
  0xbe, 0xbc, 0x3e, 0xbe, 0xbd, 0x2e, 0xa2, 0x3e, 0xca, 0x7f, 0xdb, 0xbc,
  0x61, 0xb0, 0x5d, 0x3e, 0x7b, 0x8f, 0x84, 0x3e, 0x43, 0x82, 0x8f, 0x3d,
  0x49, 0x61, 0x99, 0x3d, 0x32, 0x03, 0x1a, 0xbe, 0xbf, 0x28, 0x5c, 0x3e,
  0x44, 0x57, 0x34, 0x3d, 0x66, 0xce, 0xb7, 0x3e, 0x84, 0x57, 0x85, 0x3e,
  0x20, 0x01, 0x09, 0x3d, 0x47, 0x72, 0x40, 0x3e, 0x73, 0x20, 0xe5, 0xbb,
  0xc4, 0x68, 0x00, 0xbd, 0xaa, 0x27, 0xe3, 0x3d, 0x2e, 0x67, 0xb0, 0x3e,
  0xee, 0xfa, 0xe5, 0xbd, 0xe0, 0x14, 0x9e, 0x3e, 0x83, 0x46, 0x0e, 0x3e,
  0xc2, 0x9e, 0xa6, 0xbd, 0x4e, 0x3c, 0xb5, 0xbe, 0x58, 0x4d, 0x74, 0xbd,
  0x80, 0xf5, 0xa3, 0xbe, 0x7e, 0x3c, 0xef, 0xbd, 0x46, 0x16, 0x51, 0x3e,
  0xd8, 0xfd, 0x0b, 0xbf, 0x63, 0xcd, 0xc6, 0x3e, 0xaa, 0xbb, 0x38, 0x3e,
  0x5e, 0x20, 0xcf, 0x3e, 0xc9, 0xee, 0x4a, 0x3d, 0x53, 0x7b, 0x33, 0xbd,
  0xd0, 0x25, 0x0e, 0x3f, 0x1c, 0xb9, 0x37, 0x3e, 0xef, 0x4c, 0xcd, 0x3c,
  0x5a, 0x93, 0x34, 0x3e, 0xb8, 0x6d, 0x44, 0x3d, 0x5a, 0xe2, 0x8e, 0xbe,
  0xf0, 0x4d, 0x33, 0x3d, 0x3e, 0x63, 0x17, 0xbe, 0x37, 0xf2, 0xec, 0x3c,
  0x27, 0x13, 0x4d, 0x3e, 0xb9, 0xce, 0x0b, 0xbe, 0x96, 0x5f, 0x59, 0x3c,
  0x92, 0x86, 0xa6, 0xbe, 0xdf, 0xd9, 0x37, 0x3d, 0x69, 0x03, 0x81, 0x3e,
  0x17, 0x9d, 0x64, 0x3e, 0xb9, 0x37, 0x6f, 0x3b, 0xe1, 0xe0, 0x65, 0xbe,
  0xba, 0x67, 0xc4, 0xbd, 0x61, 0x10, 0xf9, 0x3d, 0x00, 0xb3, 0x19, 0x3d,
  0x6c, 0xba, 0x1f, 0xbe, 0x9a, 0x1f, 0x2a, 0x3e, 0x08, 0x80, 0x34, 0xbe,
  0x79, 0xb2, 0xe9, 0xbc, 0x5d, 0xbc, 0x7e, 0x3d, 0xd2, 0xed, 0x1b, 0x3e,
  0x51, 0x7c, 0x9e, 0x3e, 0x45, 0x00, 0xd0, 0xbc, 0x3d, 0x16, 0x4d, 0x3e,
  0x90, 0x23, 0x01, 0x3e, 0xec, 0x12, 0xe1, 0xbe, 0xbf, 0xd2, 0x0f, 0x3e,
  0x09, 0xbf, 0x32, 0xbe, 0x59, 0xfb, 0xed, 0x3d, 0x7b, 0xc5, 0x50, 0xbe,
  0x97, 0x09, 0x8c, 0x3e, 0x5a, 0x33, 0xa9, 0x3e, 0x25, 0xb7, 0xed, 0x3d,
  0x8d, 0x06, 0xd5, 0x3d, 0x8f, 0xfe, 0x33, 0x3e, 0xe8, 0xf0, 0x81, 0xbe,
  0xa5, 0x18, 0x44, 0xbe, 0x3f, 0xce, 0x9e, 0x3a, 0x53, 0x1f, 0xe7, 0x3e,
  0x26, 0x66, 0xd9, 0xb9, 0x15, 0x92, 0x6e, 0x3e, 0x16, 0xa8, 0x8b, 0x3e,
  0x3c, 0xfa, 0x41, 0xbe, 0x93, 0xaf, 0xb9, 0xbe, 0xcd, 0xbd, 0xcd, 0xbd,
  0x41, 0x07, 0x0a, 0xbe, 0xa2, 0xbe, 0x89, 0x3d, 0x74, 0x53, 0x60, 0xbb,
  0x6b, 0x8d, 0x1c, 0xbe, 0x68, 0x50, 0x9c, 0x3e, 0xa8, 0x99, 0x30, 0x3e,
  0x4c, 0xc0, 0x17, 0x3d, 0xa8, 0x98, 0x0b, 0xbe, 0xb7, 0xeb, 0xba, 0xbd,
  0xb5, 0x91, 0x3b, 0x3d, 0xf6, 0x53, 0xb8, 0x3e, 0x06, 0xb7, 0x3d, 0x3e,
  0x66, 0x3e, 0x20, 0x3d, 0xdf, 0x8f, 0xc3, 0xbe, 0x9e, 0x2a, 0x96, 0x3e,
  0x96, 0xee, 0x5b, 0xbe, 0x4e, 0xbb, 0x70, 0xbe, 0xdb, 0x49, 0x04, 0x3f,
  0x76, 0xf5, 0xed, 0x3e, 0x6c, 0xe7, 0x8f, 0x3d, 0x3b, 0x9d, 0x62, 0xbe,
  0x9f, 0x75, 0x9f, 0xbd, 0x8e, 0x0c, 0x18, 0xbe, 0x77, 0x11, 0x41, 0x3c,
  0xa0, 0x26, 0xc1, 0x3c, 0xd9, 0xd4, 0xf7, 0x3e, 0x47, 0x8a, 0x8f, 0x3d,
  0xd3, 0x50, 0x82, 0xbe, 0x75, 0xbc, 0x00, 0x3f, 0x94, 0x10, 0x31, 0xbe,
  0x04, 0x8f, 0xb8, 0x3d, 0xb4, 0x77, 0xb1, 0x39, 0x13, 0xa8, 0x5e, 0x3c,
  0xd0, 0x51, 0x87, 0xbe, 0x40, 0xfe, 0xee, 0xbd, 0x61, 0xe2, 0x86, 0x3e,
  0x1e, 0x03, 0xa2, 0xbb, 0x0d, 0x1c, 0x99, 0xbc, 0x5f, 0xd0, 0x21, 0xbe,
  0x4d, 0xfd, 0xc0, 0xbd, 0x43, 0xac, 0x99, 0x3e, 0xac, 0x71, 0x20, 0xbe,
  0x15, 0x3a, 0x02, 0xbc, 0xb8, 0x8b, 0x2d, 0x3d, 0x8f, 0x43, 0xae, 0x3d,
  0xc2, 0xe4, 0xfd, 0xbb, 0xed, 0x37, 0xd0, 0xbd, 0x2f, 0x2a, 0x6d, 0x3e,
  0x87, 0x06, 0xb3, 0xbd, 0x48, 0xaa, 0xb3, 0x3e, 0x41, 0xa2, 0x8d, 0x3e,
  0x83, 0xec, 0xbd, 0xbd, 0xad, 0xea, 0xf4, 0xbd, 0x4f, 0xbb, 0x68, 0x3e,
  0x4e, 0x5e, 0x3b, 0xbe, 0xa2, 0xb9, 0x89, 0xbd, 0x9b, 0x30, 0xc0, 0xbd,
  0x9c, 0xf9, 0xc4, 0x3e, 0x3a, 0x12, 0x02, 0x3f, 0xf9, 0x7f, 0x37, 0x3d,
  0x65, 0x73, 0xa2, 0x3e, 0xde, 0x69, 0x04, 0x3d, 0xef, 0x76, 0x52, 0x3d,
  0x35, 0x72, 0x0b, 0xbe, 0xa1, 0xe0, 0xb7, 0xbc, 0xcb, 0x5b, 0x16, 0xbd,
  0x13, 0xb4, 0x05, 0x3f, 0x1a, 0xd6, 0x5b, 0x3e, 0xad, 0xda, 0xc2, 0x3d,
  0x5c, 0x29, 0x19, 0xbe, 0x5d, 0x07, 0x90, 0xbe, 0x08, 0x19, 0x8b, 0xbe,
  0xa1, 0xfe, 0xb9, 0xbd, 0x88, 0x2b, 0x90, 0x3c, 0x7a, 0x7d, 0xfc, 0x3d,
  0xec, 0xba, 0x44, 0x3d, 0x0a, 0xed, 0x76, 0x3e, 0x66, 0x73, 0x90, 0xbe,
  0x74, 0xeb, 0x52, 0xbd, 0x7b, 0x52, 0x93, 0xbd, 0xcb, 0xe3, 0x81, 0x3e,
  0x97, 0x2c, 0x82, 0x3c, 0x0a, 0x3f, 0x67, 0x3e, 0x12, 0x35, 0x2c, 0xbd,
  0xb2, 0xe9, 0x7b, 0x3d, 0x58, 0xfa, 0x9b, 0xbe, 0xb2, 0x2d, 0xb2, 0xbc,
  0x86, 0xdd, 0xee, 0x3d, 0x03, 0x06, 0x67, 0x3e, 0x4c, 0x0a, 0x81, 0x3e,
  0xf5, 0xc0, 0x16, 0xbe, 0x56, 0x73, 0x35, 0x3e, 0x13, 0xc7, 0x85, 0x3e,
  0x86, 0x94, 0x60, 0xbd, 0x45, 0x4f, 0xcb, 0x3e, 0x17, 0x4a, 0x51, 0x3d,
  0x6a, 0x35, 0x2a, 0x3e, 0xf9, 0x78, 0x45, 0x3e, 0xab, 0x84, 0xb4, 0xbe,
  0x06, 0xe0, 0xab, 0xbd, 0x56, 0x8e, 0x29, 0xbe, 0xd2, 0x60, 0x95, 0xbe,
  0x3a, 0x17, 0x30, 0x3d, 0x0e, 0x34, 0xb4, 0xbe, 0xf1, 0xf1, 0x61, 0xbe,
  0xec, 0x3b, 0x95, 0x3c, 0x95, 0x2f, 0x0f, 0xbd, 0x0a, 0x77, 0xc6, 0x3d,
  0xa4, 0xc0, 0x91, 0xbd, 0x18, 0x89, 0x0c, 0x3d, 0xbc, 0xdb, 0x21, 0xbe,
  0x6c, 0x35, 0xba, 0x3e, 0x0f, 0xf7, 0x42, 0x3e, 0x32, 0x88, 0xaa, 0x3d,
  0x2f, 0x49, 0x2a, 0xbe, 0x45, 0x30, 0x73, 0xbe, 0xfd, 0xcf, 0x97, 0xbe,
  0xd7, 0x56, 0x91, 0x3e, 0x06, 0xf2, 0xc4, 0x3e, 0x3b, 0x7f, 0x71, 0x3e,
  0xa2, 0xca, 0x55, 0xbe, 0x69, 0xe4, 0xa6, 0x3c, 0xa8, 0xe4, 0x9e, 0xbe,
  0xe1, 0x23, 0x39, 0x3d, 0x66, 0x4b, 0x51, 0x3d, 0x50, 0x9b, 0x05, 0xbe,
  0x24, 0xfd, 0xba, 0xbd, 0x3c, 0x38, 0x3c, 0xbe, 0xc0, 0x60, 0xd2, 0x3e,
  0x40, 0xd7, 0x5e, 0x3d, 0xff, 0xd4, 0xa2, 0x3e, 0x90, 0xa1, 0x83, 0x3e,
  0x2b, 0xb2, 0x9c, 0xbc, 0x27, 0x13, 0xac, 0xbe, 0xb4, 0x7e, 0x39, 0xbe,
  0x35, 0xae, 0x02, 0xbf, 0xf7, 0xc5, 0x36, 0xbe, 0x0a, 0x6c, 0x8a, 0xbc,
  0x46, 0x34, 0x3f, 0x3e, 0x96, 0xcd, 0xce, 0x3e, 0x17, 0xec, 0x43, 0x3d,
  0xbc, 0xe7, 0x85, 0xbd, 0x09, 0xd2, 0x0b, 0x3d, 0xbc, 0xf1, 0x10, 0x3e,
  0xae, 0x02, 0x25, 0xbe, 0x45, 0x56, 0x27, 0xbe, 0x1c, 0x8f, 0x36, 0xbc,
  0xb1, 0x3d, 0x63, 0x3e, 0x00, 0xba, 0x40, 0xbe, 0xe9, 0xc2, 0xeb, 0xbd,
  0xd3, 0x52, 0x31, 0x3d, 0xe8, 0xe4, 0x33, 0xbe, 0xee, 0xb6, 0x92, 0x3e,
  0x43, 0xa6, 0x7d, 0x3e, 0x4b, 0xb4, 0xe5, 0x3e, 0xc0, 0x53, 0x72, 0xbd,
  0x8d, 0x47, 0x8b, 0x3e, 0x0a, 0x21, 0x23, 0xbd, 0x0d, 0x50, 0x32, 0xbe,
  0xed, 0xc8, 0x84, 0xbc, 0x36, 0xbf, 0x29, 0x3e, 0xec, 0x25, 0x71, 0x3e,
  0x0d, 0x5d, 0x8f, 0xbe, 0x17, 0x6d, 0xcc, 0x3b, 0x82, 0x85, 0x66, 0xbe,
  0xf1, 0xce, 0xa7, 0x3e, 0x08, 0x19, 0x0e, 0xbd, 0xbe, 0xa1, 0x88, 0xbe,
  0x0e, 0xbc, 0x20, 0x3e, 0x9b, 0x91, 0xe2, 0xbd, 0xab, 0x9c, 0xf6, 0x3d,
  0xa5, 0xc7, 0xaa, 0xbd, 0x39, 0x58, 0x8f, 0x3e, 0x19, 0xcb, 0x69, 0xbe,
  0x70, 0x08, 0x9e, 0x3d, 0x85, 0x25, 0x8a, 0xbe, 0xc8, 0x50, 0x5b, 0xbe,
  0x0d, 0x61, 0xae, 0xbd, 0x87, 0x49, 0x57, 0x3c, 0x2a, 0x56, 0xbc, 0x3d,
  0x8b, 0x30, 0x19, 0x3d, 0x81, 0xfc, 0x17, 0x3f, 0xd3, 0xdb, 0xcd, 0xbc,
  0xc3, 0x4d, 0xe9, 0x3e, 0x1f, 0x26, 0x17, 0xbe, 0xcc, 0x9c, 0xf0, 0x3d,
  0x53, 0xa1, 0x1f, 0xbf, 0x48, 0xa5, 0xd4, 0xbe, 0xc4, 0x64, 0xe6, 0x3d,
  0xd9, 0x21, 0x9d, 0x3c, 0xb4, 0x61, 0x87, 0xbe, 0x8f, 0x32, 0x12, 0x3c,
  0xef, 0xa8, 0x36, 0xbe, 0x36, 0x01, 0xe1, 0x3e, 0x2c, 0x5e, 0xae, 0xbc,
  0x9a, 0xca, 0x07, 0x3f, 0x8d, 0x4b, 0x67, 0xbe, 0x09, 0xa8, 0xaa, 0x3b,
  0x14, 0xe3, 0x4e, 0xbd, 0xab, 0x31, 0x0f, 0xbf, 0xda, 0x78, 0x8f, 0xbe,
  0xff, 0x63, 0xf4, 0x3e, 0xc3, 0xa0, 0x76, 0xbe, 0x0a, 0x45, 0x87, 0xbe,
  0x9f, 0x5a, 0x63, 0x3e, 0x82, 0x11, 0xf4, 0x3d, 0xe7, 0xee, 0xf4, 0xbe,
  0x1a, 0xf0, 0x80, 0x3e, 0x9b, 0x41, 0x84, 0xbe, 0x5e, 0x1a, 0x12, 0xbf,
  0xe0, 0x34, 0xdd, 0x3e, 0x11, 0x84, 0x85, 0xbe, 0x90, 0xb1, 0x79, 0x3e,
  0x7e, 0x33, 0x37, 0xbe, 0xf1, 0x79, 0xbd, 0xbe, 0x0c, 0x99, 0x12, 0x3f,
  0x62, 0x6f, 0x01, 0x3e, 0x26, 0x33, 0x08, 0xbf, 0x4a, 0xaa, 0x7f, 0x3d,
  0x28, 0x8a, 0x26, 0x3e, 0x13, 0x49, 0x04, 0xbf, 0xc6, 0xc4, 0x53, 0xbe,
  0xd2, 0x3c, 0x86, 0x3e, 0x4d, 0xff, 0xbb, 0xbc, 0x9d, 0xb4, 0x93, 0x3e,
  0x47, 0x96, 0x6f, 0xbe, 0x14, 0xb9, 0xc4, 0xbd, 0x39, 0xc7, 0x61, 0x3e,
  0x4e, 0xe0, 0xbc, 0x3c, 0xf1, 0x43, 0x23, 0x3e, 0x70, 0x50, 0xbc, 0x3e,
  0xa7, 0xe0, 0xa9, 0x3d, 0x48, 0x4e, 0x1f, 0xbd, 0x5d, 0x8c, 0x02, 0x3e,
  0x60, 0x21, 0xad, 0xbe, 0xd0, 0xde, 0x58, 0xbd, 0x6d, 0xa9, 0x5d, 0xbe,
  0xa3, 0xd9, 0x46, 0xbe, 0xbd, 0xa1, 0xa7, 0xbe, 0x63, 0xdd, 0x93, 0x3e,
  0x4a, 0xd8, 0xb7, 0xbe, 0xb5, 0x0b, 0xb2, 0xbd, 0x0b, 0x8f, 0xf1, 0x3d,
  0xf0, 0x26, 0x19, 0x3d, 0xa1, 0x11, 0x63, 0xbe, 0x89, 0xe1, 0x80, 0x3e,
  0xf9, 0xdc, 0x0e, 0xbd, 0x37, 0x4f, 0x28, 0x3e, 0x6b, 0x66, 0x8c, 0xbe,
  0x65, 0x2a, 0x0d, 0xbe, 0xe3, 0x55, 0x0e, 0xbf, 0x3e, 0x4c, 0x02, 0xbf,
  0x8f, 0x50, 0xbb, 0xbc, 0x60, 0x76, 0x0f, 0xba, 0x30, 0x56, 0x12, 0xbf,
  0x1b, 0x7b, 0x09, 0xbe, 0x62, 0xf7, 0x86, 0xbd, 0xe5, 0x7e, 0xda, 0xbe,
  0x68, 0x96, 0xc2, 0x3e, 0x84, 0xad, 0xe8, 0xbe, 0x03, 0xa2, 0x0b, 0x3e,
  0xe4, 0xab, 0xc5, 0xbe, 0xde, 0x33, 0x45, 0xbe, 0x26, 0x14, 0xf1, 0x3e,
  0x69, 0xca, 0x82, 0xbd, 0xbe, 0x0f, 0xcd, 0xbe, 0x62, 0x09, 0x83, 0xbb,
  0x58, 0xfb, 0xb5, 0xbc, 0x3b, 0x72, 0x0d, 0xbf, 0x44, 0x29, 0xc8, 0xba,
  0xdc, 0x09, 0x69, 0xbe, 0xba, 0x3c, 0x6c, 0x3b, 0x3a, 0x1e, 0xd7, 0x3e,
  0xd3, 0x78, 0xa7, 0xbe, 0xb1, 0x55, 0x56, 0xbe, 0xbf, 0x03, 0xeb, 0xbd,
  0x89, 0x2f, 0x97, 0xbe, 0x02, 0x73, 0xc0, 0x3d, 0x08, 0x70, 0x87, 0x3e,
  0xba, 0xa2, 0x93, 0xbe, 0x06, 0x6e, 0x1f, 0x3e, 0xbb, 0xe8, 0x74, 0x3c,
  0xdf, 0x5b, 0x4f, 0xbe, 0xf8, 0xef, 0x32, 0x3d, 0xe8, 0xed, 0x96, 0xbe,
  0x8d, 0x85, 0x59, 0x3c, 0x2d, 0x8c, 0x9b, 0x3e, 0xeb, 0x6c, 0x29, 0x3e,
  0x20, 0xb6, 0x3f, 0xbd, 0x2f, 0x04, 0x9e, 0x3e, 0xc3, 0x42, 0xb2, 0x3c,
  0x90, 0x57, 0x2b, 0xbe, 0x10, 0x81, 0x14, 0x3e, 0xaf, 0x15, 0xaa, 0x3d,
  0x33, 0xa8, 0x86, 0xbc, 0x1b, 0xfe, 0x36, 0xbe, 0xd4, 0x4c, 0xb1, 0x3d,
  0xdf, 0x46, 0xca, 0xbd, 0x07, 0x27, 0x3e, 0x3e, 0x1f, 0x5c, 0x1d, 0xbe,
  0x64, 0x54, 0x05, 0x3e, 0xe0, 0xd1, 0x83, 0xbe, 0x52, 0xc9, 0xe7, 0x3d,
  0x53, 0x03, 0xac, 0x3d, 0x03, 0xa3, 0x6b, 0x3e, 0x66, 0x62, 0xc0, 0x3d,
  0x5d, 0x7a, 0x9e, 0xbd, 0x6b, 0x49, 0xb0, 0xbd, 0xbe, 0x1c, 0x2d, 0xbd,
  0xba, 0x6c, 0xa2, 0x3e, 0x36, 0x74, 0x06, 0x3e, 0x23, 0x8d, 0x28, 0xbd,
  0x75, 0xe5, 0x0f, 0x3d, 0xe1, 0x9a, 0x98, 0xbd, 0x01, 0x76, 0x54, 0xbe,
  0x32, 0x3c, 0x58, 0x3e, 0xfe, 0x32, 0x0b, 0xbe, 0xea, 0x32, 0x85, 0x3e,
  0xf2, 0xa8, 0xca, 0xbe, 0x9c, 0x1b, 0x91, 0xbd, 0x36, 0xca, 0xe7, 0xbd,
  0x09, 0xa6, 0xa6, 0x3e, 0xf3, 0x71, 0x33, 0xbe, 0xe9, 0xb4, 0xa2, 0xbe,
  0xca, 0x3c, 0x06, 0x3e, 0x4a, 0x6c, 0x13, 0x3f, 0xe9, 0x98, 0x06, 0xbd,
  0x7d, 0xfe, 0x2c, 0x3d, 0x8e, 0x85, 0x1a, 0x3d, 0xc3, 0x77, 0x3e, 0x3e,
  0x13, 0x79, 0x23, 0xbd, 0x38, 0x81, 0xd1, 0xbe, 0xa8, 0x47, 0xa5, 0x3e,
  0x9e, 0x1f, 0x80, 0xbe, 0x4a, 0x37, 0x1c, 0x3e, 0x33, 0x46, 0xc1, 0x3d,
  0x8c, 0xea, 0xa2, 0x3e, 0x10, 0xf1, 0xbf, 0x3e, 0x29, 0x21, 0x22, 0xbf,
  0x6d, 0x6d, 0x62, 0x3f, 0x87, 0x88, 0x07, 0x3d, 0xee, 0x8b, 0xfa, 0x3d,
  0x8e, 0xea, 0x19, 0x3f, 0xf7, 0x01, 0xa7, 0xbe, 0xf1, 0xe8, 0x08, 0xbf,
  0x6e, 0x3f, 0x4b, 0x3f, 0x36, 0x27, 0x8f, 0xbd, 0xd9, 0x4f, 0xb1, 0xbe,
  0x84, 0x52, 0x1c, 0x3f, 0x7d, 0xd7, 0x04, 0x3e, 0x8b, 0xf6, 0x91, 0xbe,
  0x14, 0x7b, 0x60, 0x3e, 0x9d, 0x24, 0x9d, 0xbe, 0xd8, 0x76, 0x19, 0xbf,
  0x5f, 0x4f, 0xfb, 0x3e, 0x0c, 0x33, 0x4f, 0xbf, 0xa4, 0x8c, 0x52, 0xbe,
  0x43, 0x1f, 0xc0, 0xbe, 0x65, 0x0e, 0x1b, 0xbf, 0x9b, 0x27, 0xd3, 0x3e,
  0x7c, 0x08, 0x2a, 0x3e, 0xf5, 0xd7, 0x01, 0xbf, 0x8d, 0x6e, 0x70, 0xbe,
  0xeb, 0x50, 0x12, 0xbe, 0x4b, 0xe5, 0x27, 0xbf, 0xab, 0x07, 0xe9, 0xbe,
  0x47, 0xf7, 0x8e, 0x3e, 0x97, 0x7f, 0x95, 0xbe, 0xd3, 0x25, 0x85, 0x3e,
  0x14, 0xb1, 0x20, 0xbe, 0x18, 0xc7, 0x79, 0xbe, 0x94, 0x8a, 0x19, 0xbf,
  0x5e, 0x70, 0xbc, 0xbe, 0x85, 0x73, 0x22, 0xbf, 0x3c, 0x61, 0x3e, 0x3e,
  0x69, 0x41, 0xce, 0xbe, 0x34, 0xfa, 0x0f, 0x3f, 0xfd, 0x2d, 0x02, 0xbe,
  0x79, 0x8a, 0x94, 0xbe, 0x78, 0xb0, 0x7f, 0xbe, 0xca, 0xde, 0x4e, 0x3e,
  0xd3, 0x1e, 0xe4, 0x3e, 0x68, 0xc9, 0xb7, 0xbd, 0x75, 0x17, 0x53, 0x3e,
  0xf0, 0x80, 0x21, 0xbe, 0x7b, 0x0c, 0xa3, 0xbe, 0x41, 0xaf, 0xf2, 0x3c,
  0x0c, 0x3e, 0xf8, 0x3c, 0xa9, 0xe5, 0x80, 0xbe, 0xfa, 0x73, 0xd0, 0x3e,
  0xfb, 0xed, 0x3e, 0x3e, 0xb7, 0xb8, 0x39, 0x3f, 0xdd, 0xaf, 0x24, 0x3e,
  0xa5, 0x2d, 0xaa, 0x3c, 0xcb, 0x26, 0x40, 0xbf, 0x26, 0x49, 0x12, 0xbf,
  0x98, 0x3c, 0x8c, 0xbe, 0xcb, 0xb8, 0x78, 0x3e, 0xf0, 0x11, 0x44, 0xbf,
  0x10, 0x99, 0xdf, 0x3d, 0x20, 0xb9, 0x88, 0xbe, 0x57, 0x04, 0x03, 0xbf,
  0x30, 0x52, 0x35, 0xbc, 0x04, 0xe8, 0xae, 0xbe, 0x9d, 0xfd, 0xa4, 0xbe,
  0x14, 0x6c, 0xbd, 0x3e, 0x2c, 0x5d, 0x99, 0x3d, 0xa7, 0x26, 0xf1, 0x3e,
  0x13, 0xac, 0x9e, 0x3e, 0xf8, 0x01, 0x4e, 0xbe, 0x6f, 0x41, 0x1f, 0xbf,
  0xdc, 0x87, 0x96, 0xbe, 0x1d, 0x3a, 0xcd, 0xbe, 0x54, 0xe8, 0x3c, 0xbd,
  0xcf, 0xc5, 0xb8, 0xbe, 0xb8, 0x78, 0x4c, 0x3e, 0xd6, 0xd0, 0x0e, 0xbe,
  0x79, 0xdb, 0x20, 0x3f, 0x71, 0x4b, 0xca, 0xbe, 0x6f, 0xa6, 0xd6, 0x3e,
  0x17, 0x88, 0x0c, 0xbe, 0x36, 0xef, 0x21, 0x3f, 0xe3, 0xec, 0x2f, 0x3e,
  0x21, 0xa1, 0xda, 0xbe, 0xb9, 0x6c, 0x11, 0xbf, 0xc2, 0x47, 0x8e, 0x3e,
  0x7e, 0xe9, 0xc7, 0xbe, 0x67, 0x85, 0xa7, 0xbe, 0x70, 0x45, 0x13, 0x3f,
  0xe7, 0xe3, 0x14, 0xbc, 0xf2, 0xba, 0x09, 0xbf, 0x4f, 0xc1, 0x62, 0x3d,
  0x85, 0xcf, 0xdc, 0x3e, 0x46, 0x0f, 0x00, 0xbf, 0x90, 0x1d, 0x7b, 0xbe,
  0xc0, 0xd0, 0xb3, 0xbe, 0xea, 0x2c, 0x74, 0xbe, 0x56, 0x2e, 0x03, 0xbd,
  0xd4, 0x94, 0xce, 0x3e, 0xb1, 0x1f, 0x6d, 0x3e, 0xf7, 0xd5, 0x87, 0x3e,
  0x85, 0xef, 0xc7, 0xbe, 0x40, 0x82, 0xd2, 0xbe, 0x8a, 0xf1, 0x93, 0xbc,
  0x92, 0x98, 0x40, 0x3d, 0xe9, 0x28, 0xc2, 0x3e, 0xbc, 0x9e, 0x1e, 0x3f,
  0x6a, 0x92, 0xbd, 0x3e, 0x70, 0x75, 0xab, 0x3e, 0x5c, 0xef, 0xaf, 0xbe,
  0x15, 0xc0, 0x99, 0xbe, 0x9f, 0x34, 0x21, 0xbe, 0x7e, 0x8d, 0x3b, 0xbe,
  0x97, 0xf1, 0xdb, 0x3d, 0x70, 0x0d, 0x0a, 0xbe, 0x5a, 0x01, 0xed, 0x3e,
  0xf9, 0x16, 0x1f, 0x3f, 0xd6, 0xa0, 0x04, 0xbf, 0x23, 0xb0, 0x89, 0x3e,
  0x97, 0xe6, 0x01, 0x3f, 0x84, 0x54, 0xb1, 0xbe, 0x23, 0x74, 0x95, 0xbd,
  0x8b, 0x00, 0xd3, 0x3e, 0xc7, 0x1d, 0xef, 0x3d, 0x70, 0xdf, 0x3a, 0x3f,
  0x60, 0xb3, 0xfd, 0x3c, 0x22, 0xe3, 0xd0, 0xbd, 0xca, 0x02, 0xba, 0xbe,
  0x01, 0xd9, 0x82, 0xbd, 0x99, 0xc6, 0x0c, 0xbf, 0x86, 0x38, 0x70, 0xbe,
  0xcd, 0x99, 0xb2, 0xbe, 0xe7, 0xac, 0xbc, 0x3e, 0x02, 0x52, 0x04, 0xbe,
  0x0b, 0x72, 0x4a, 0x3f, 0x31, 0x1e, 0x25, 0x3f, 0x2d, 0xc3, 0xab, 0x3c,
  0x21, 0x77, 0x9e, 0x3d, 0x49, 0xeb, 0x84, 0x3f, 0x6c, 0x4c, 0xb4, 0xbd,
  0xd2, 0x15, 0x43, 0x3f, 0x60, 0xc9, 0xb0, 0x3e, 0x8f, 0x59, 0xb8, 0xbd,
  0x89, 0x5f, 0xcf, 0x3d, 0x01, 0x26, 0xba, 0xbe, 0x0c, 0xe0, 0x37, 0xbf,
  0x77, 0x6c, 0xfd, 0x3e, 0xd7, 0x3e, 0x5c, 0xbf, 0x20, 0xa5, 0xd1, 0x3d,
  0x31, 0x8a, 0xd5, 0x3e, 0x5c, 0x24, 0xf4, 0x3d, 0xef, 0xed, 0xff, 0x3d,
  0x43, 0x0e, 0xc7, 0x3e, 0x84, 0x31, 0x32, 0x3f, 0x7c, 0xc0, 0xbc, 0x3e,
  0x3f, 0xcd, 0x28, 0x3f, 0x4f, 0x7a, 0x2e, 0xbf, 0x68, 0xfd, 0x5d, 0xbe,
  0x84, 0x80, 0x3c, 0x3d, 0x09, 0xe8, 0x36, 0x3e, 0xbb, 0x56, 0x8a, 0xbe,
  0x97, 0xb7, 0x53, 0x3f, 0x10, 0xfe, 0x6b, 0x3e, 0x45, 0xe0, 0x67, 0x3f,
  0x9c, 0x9b, 0xa4, 0xbd, 0x74, 0x30, 0x94, 0x3e, 0xde, 0x10, 0x68, 0xbf,
  0x4e, 0xb0, 0x35, 0xbf, 0x66, 0x98, 0x19, 0xbb, 0xcc, 0x18, 0xc3, 0xbe,
  0x76, 0xe9, 0x07, 0xbf, 0xa5, 0x30, 0x0c, 0xbf, 0x0c, 0x6d, 0x16, 0x3f,
  0x6d, 0xd5, 0x91, 0xbd, 0x89, 0x0b, 0x96, 0xbe, 0xba, 0xdf, 0x36, 0x3e,
  0x06, 0x0b, 0xeb, 0xbc, 0xcf, 0xf9, 0x2b, 0xbf, 0x5f, 0xfc, 0x89, 0xbe,
  0xff, 0x0b, 0x50, 0xbf, 0x7c, 0x9a, 0x42, 0xbe, 0x6f, 0x86, 0x13, 0xbe,
  0x96, 0xee, 0x7f, 0x3e, 0x3a, 0x30, 0xc2, 0x3e, 0xaa, 0x6e, 0x9e, 0x3e,
  0x18, 0x36, 0x90, 0x3e, 0xfb, 0xf8, 0x1a, 0x3f, 0xb7, 0x33, 0x9f, 0x3e,
  0xe0, 0x9f, 0xff, 0xff, 0xe4, 0x9f, 0xff, 0xff, 0xe8, 0x9f, 0xff, 0xff,
  0xec, 0x9f, 0xff, 0xff, 0xf0, 0x9f, 0xff, 0xff, 0xf4, 0x9f, 0xff, 0xff,
  0xf8, 0x9f, 0xff, 0xff, 0xfc, 0x9f, 0xff, 0xff, 0x00, 0xa0, 0xff, 0xff,
  0x04, 0xa0, 0xff, 0xff, 0x08, 0xa0, 0xff, 0xff, 0x0c, 0xa0, 0xff, 0xff,
  0x10, 0xa0, 0xff, 0xff, 0x14, 0xa0, 0xff, 0xff, 0x18, 0xa0, 0xff, 0xff,
  0x1c, 0xa0, 0xff, 0xff, 0x20, 0xa0, 0xff, 0xff, 0x24, 0xa0, 0xff, 0xff,
  0x28, 0xa0, 0xff, 0xff, 0x2c, 0xa0, 0xff, 0xff, 0x30, 0xa0, 0xff, 0xff,
  0x34, 0xa0, 0xff, 0xff, 0x38, 0xa0, 0xff, 0xff, 0x3c, 0xa0, 0xff, 0xff,
  0x40, 0xa0, 0xff, 0xff, 0x44, 0xa0, 0xff, 0xff, 0x48, 0xa0, 0xff, 0xff,
  0x4c, 0xa0, 0xff, 0xff, 0x50, 0xa0, 0xff, 0xff, 0x54, 0xa0, 0xff, 0xff,
  0x58, 0xa0, 0xff, 0xff, 0x5c, 0xa0, 0xff, 0xff, 0x60, 0xa0, 0xff, 0xff,
  0x64, 0xa0, 0xff, 0xff, 0x68, 0xa0, 0xff, 0xff, 0x6c, 0xa0, 0xff, 0xff,
  0x70, 0xa0, 0xff, 0xff, 0x74, 0xa0, 0xff, 0xff, 0x78, 0xa0, 0xff, 0xff,
  0x92, 0xb3, 0xff, 0xff, 0x04, 0x00, 0x00, 0x00, 0x00, 0x01, 0x00, 0x00,
  0x47, 0x5f, 0x60, 0x3e, 0xa4, 0xe2, 0x3f, 0x3d, 0xd1, 0x5e, 0x0f, 0x3e,
  0xb8, 0xf3, 0x19, 0x3e, 0xb6, 0x7c, 0x8e, 0xbc, 0x3f, 0xfe, 0x47, 0x3d,
  0xf8, 0x24, 0xda, 0x3d, 0xf7, 0x1a, 0x12, 0x3e, 0x2c, 0x05, 0x94, 0x3d,
  0x1e, 0x95, 0xcd, 0x3d, 0x38, 0xfc, 0xce, 0x3d, 0xe1, 0x4d, 0x79, 0x3c,
  0xe9, 0x54, 0x6a, 0x3e, 0x0d, 0xab, 0x89, 0x3d, 0x18, 0x5e, 0xe4, 0x3d,
  0x5a, 0xa4, 0x48, 0xbc, 0x1a, 0xdd, 0x54, 0x3f, 0xac, 0xd6, 0x9b, 0x3f,
  0xd4, 0x18, 0x84, 0x3f, 0x6f, 0xa6, 0x4a, 0x3f, 0x0e, 0x26, 0x7d, 0x3f,
  0x09, 0xfa, 0x47, 0x3f, 0xed, 0x79, 0x95, 0x3f, 0x77, 0x9c, 0x6c, 0x3f,
  0x02, 0xe2, 0x4e, 0x3f, 0x7a, 0x9d, 0x99, 0x3f, 0xe7, 0x8b, 0x95, 0x3f,
  0x2d, 0x94, 0x28, 0x3f, 0x4b, 0x0d, 0x99, 0x3f, 0xca, 0x86, 0x81, 0x3f,
  0x80, 0x58, 0x32, 0x3f, 0x94, 0xe2, 0x85, 0x3f, 0x75, 0x22, 0x19, 0xbd,
  0x7a, 0xd1, 0xae, 0xbd, 0x72, 0x2d, 0x05, 0xbe, 0xa6, 0xcb, 0x87, 0xbd,
  0x6f, 0xa9, 0xc6, 0xbd, 0x53, 0x5b, 0x24, 0x3e, 0xf7, 0xb7, 0x09, 0x3e,
  0xf1, 0x89, 0xa4, 0x3e, 0x80, 0x08, 0x8b, 0x3c, 0x12, 0x62, 0x1c, 0xbe,
  0x41, 0xbd, 0x09, 0xbe, 0x0f, 0x2f, 0xbc, 0x3d, 0x1c, 0x72, 0x08, 0xbe,
  0x2b, 0x3f, 0x4f, 0x3d, 0x73, 0x36, 0xd7, 0xbd, 0x1a, 0x78, 0x97, 0x3d,
  0x02, 0x84, 0x32, 0xbe, 0xf1, 0x71, 0xee, 0xbd, 0xb1, 0x9c, 0x90, 0x3c,
  0x93, 0xf8, 0xa6, 0x3e, 0x62, 0x71, 0x91, 0x3c, 0xc2, 0x71, 0xb6, 0x3b,
  0x70, 0xc3, 0xe4, 0xbd, 0xc1, 0x5d, 0xdc, 0x3d, 0x83, 0xf6, 0xf8, 0x3d,
  0xd6, 0xbe, 0x30, 0xbe, 0x0a, 0x0e, 0x88, 0xbd, 0x16, 0xa6, 0x00, 0xbe,
  0xf8, 0x71, 0xb1, 0xbd, 0xbc, 0xc5, 0x3b, 0x3d, 0x5e, 0xa9, 0xcf, 0xbc,
  0x16, 0x7a, 0x41, 0xbe, 0x9e, 0xb4, 0xff, 0xff, 0x04, 0x00, 0x00, 0x00,
  0x00, 0x10, 0x00, 0x00, 0x5c, 0x5a, 0x7b, 0x3e, 0x94, 0x07, 0x11, 0xbb,
  0x41, 0xf5, 0x11, 0xbe, 0x49, 0xef, 0xec, 0x3c, 0x89, 0x09, 0x23, 0x3e,
  0xe6, 0x94, 0x9c, 0x3d, 0x55, 0x87, 0x75, 0x3e, 0xc2, 0x70, 0x4b, 0xbe,
  0x11, 0x1f, 0xf9, 0xbb, 0xc6, 0xb7, 0x7e, 0xbe, 0x6a, 0x43, 0xd9, 0xbd,
  0xa7, 0x8f, 0xe7, 0x3d, 0x7c, 0x96, 0x29, 0xbd, 0x24, 0x94, 0x74, 0x3e,
  0xf0, 0x1b, 0x0f, 0xbe, 0xb3, 0xf1, 0xa0, 0x3e, 0x3f, 0xc0, 0x04, 0x3e,
  0xa9, 0xeb, 0xbe, 0xbd, 0x64, 0x6f, 0x00, 0xbe, 0x25, 0x29, 0xae, 0xbd,
  0x6e, 0x7c, 0x1a, 0x3d, 0xf8, 0x3d, 0xdc, 0x3c, 0xcb, 0xcf, 0x10, 0x3e,
  0xc7, 0x33, 0xec, 0x3d, 0x6f, 0x7b, 0x51, 0xbe, 0x9a, 0x11, 0xda, 0xbd,
  0x36, 0xe1, 0x0b, 0xbd, 0x06, 0x12, 0xa5, 0xbc, 0xee, 0x2c, 0x08, 0xbd,
  0xb2, 0x7d, 0x31, 0xbd, 0x3e, 0x62, 0x3e, 0xbd, 0x7f, 0x60, 0x4a, 0x3d,
  0xbe, 0xce, 0x46, 0x3d, 0x41, 0x07, 0xa0, 0xbe, 0x14, 0x63, 0xd9, 0x3c,
  0x6a, 0xd2, 0x87, 0x3d, 0x58, 0x34, 0x2f, 0x3d, 0xe8, 0xfe, 0x9f, 0xbd,
  0xf6, 0x9f, 0x81, 0xbe, 0xb1, 0x35, 0x1a, 0x3e, 0xf5, 0x17, 0xb2, 0x3d,
  0x82, 0x55, 0xa3, 0xbe, 0x53, 0xa0, 0x10, 0x3e, 0x85, 0xa0, 0xa7, 0x3e,
  0x01, 0xc9, 0xad, 0xbe, 0x06, 0x79, 0x8c, 0xbe, 0x60, 0x91, 0x9a, 0x3d,
  0x00, 0xb5, 0x8e, 0x3d, 0x52, 0xda, 0x60, 0x3c, 0x4d, 0x65, 0x4c, 0xbd,
  0x6c, 0x80, 0x51, 0xbe, 0x1c, 0x07, 0x2d, 0x3e, 0xd8, 0x37, 0xf4, 0x3c,
  0x97, 0xbd, 0x89, 0xbb, 0xc6, 0x5d, 0xe2, 0xbd, 0xb1, 0xa0, 0x3f, 0x3d,
  0xdf, 0x49, 0xac, 0x3d, 0x44, 0x68, 0xe1, 0xbd, 0x9f, 0xeb, 0x3b, 0xbe,
  0xf9, 0x97, 0x03, 0x3d, 0x0d, 0xf2, 0xa0, 0x3c, 0xc2, 0xf8, 0x4b, 0x3e,
  0x9f, 0xe2, 0x2b, 0xbd, 0x7a, 0x50, 0x2b, 0x3e, 0x76, 0x7f, 0x23, 0xbe,
  0xb8, 0xa9, 0x38, 0x3e, 0x6b, 0xca, 0x77, 0x3c, 0xec, 0x2c, 0x77, 0xbd,
  0x0a, 0x16, 0xa6, 0xbc, 0x39, 0xff, 0xe5, 0xbd, 0x43, 0x0f, 0xaa, 0x3d,
  0xca, 0xd5, 0x52, 0x3b, 0x80, 0xb2, 0xc6, 0xbd, 0x94, 0xbf, 0xe7, 0xbc,
  0x44, 0x17, 0x45, 0x3d, 0x15, 0x38, 0x49, 0x3e, 0x13, 0x9f, 0x97, 0xbb,
  0xc1, 0xa0, 0x8c, 0xbd, 0xa1, 0x43, 0xbc, 0xbc, 0x43, 0x7f, 0x39, 0x3e,
  0x73, 0x99, 0x0a, 0x3d, 0xef, 0xdd, 0x89, 0x3c, 0xc3, 0x78, 0x95, 0xbd,
  0x23, 0x4e, 0x7c, 0xbe, 0x3a, 0x03, 0xce, 0xbd, 0xa6, 0x71, 0x99, 0x3e,
  0xc6, 0xbc, 0x30, 0x3e, 0x93, 0x35, 0x96, 0xbd, 0x26, 0xff, 0xcc, 0x3b,
  0x38, 0x84, 0x47, 0xbd, 0x4d, 0xaa, 0x2b, 0xbe, 0x87, 0x0f, 0x8e, 0x3e,
  0xca, 0x56, 0x33, 0xbe, 0xd0, 0xab, 0x55, 0x3d, 0xc5, 0x99, 0x02, 0x3e,
  0x09, 0xa8, 0xe6, 0xbd, 0x5f, 0x5a, 0x6d, 0x3e, 0x94, 0xe7, 0xdb, 0xbc,
  0x1a, 0xb1, 0x1d, 0xbe, 0xb6, 0x40, 0x92, 0xbe, 0xdd, 0xa6, 0x10, 0x3e,
  0x5d, 0x5f, 0x31, 0xbe, 0xf3, 0x0b, 0x5a, 0xbd, 0x51, 0xa2, 0x7b, 0x3d,
  0xa3, 0x7e, 0x92, 0x3c, 0xbf, 0x55, 0x1f, 0xbe, 0xe2, 0xb5, 0xbf, 0x3d,
  0x92, 0xb0, 0x0d, 0x3e, 0x06, 0x65, 0xd8, 0xbd, 0x15, 0x26, 0x18, 0xbe,
  0x90, 0xe8, 0x43, 0x3d, 0x04, 0xf3, 0x9a, 0x3d, 0x3a, 0xf8, 0x2b, 0xbc,
  0xf8, 0xc0, 0xa6, 0xbc, 0xae, 0x27, 0x4f, 0xbd, 0x4f, 0x75, 0xb8, 0xbd,
  0xa2, 0xa2, 0xbf, 0x3c, 0x5d, 0x5e, 0x0e, 0x3e, 0xaa, 0xf2, 0x5c, 0xbc,
  0x51, 0xa4, 0x0a, 0x3d, 0x61, 0x5e, 0x0f, 0x3e, 0x7d, 0xa1, 0x5d, 0x3e,
  0xb2, 0x61, 0xa5, 0xbd, 0xe3, 0x45, 0x30, 0x3e, 0xe0, 0xa8, 0xac, 0xbd,
  0xf6, 0x0e, 0x8f, 0x3c, 0xe5, 0x1f, 0x37, 0xbc, 0xa5, 0x11, 0x23, 0x3e,
  0x12, 0x31, 0x34, 0x3e, 0xaa, 0x00, 0xf5, 0xbd, 0xe9, 0xed, 0x42, 0xbe,
  0xce, 0x28, 0xb8, 0x3d, 0x93, 0x70, 0x80, 0xbc, 0xb5, 0x4a, 0x44, 0xbc,
  0x21, 0x9d, 0xfe, 0xbd, 0x14, 0x39, 0x41, 0x3e, 0x15, 0x9c, 0x38, 0xbe,
  0x5b, 0xd6, 0xd9, 0x3d, 0x61, 0xfa, 0xee, 0xbc, 0x4f, 0x95, 0x68, 0xbc,
  0x97, 0xda, 0x6a, 0xbc, 0xf5, 0x4e, 0x3e, 0x3e, 0x4b, 0xf1, 0xe9, 0x3b,
  0xad, 0xe6, 0x73, 0x3e, 0x76, 0xb0, 0x68, 0x3e, 0x73, 0x1b, 0x22, 0xbe,
  0x58, 0x32, 0x56, 0xbe, 0xc7, 0xda, 0x47, 0x3b, 0xc4, 0xc1, 0xf8, 0xbd,
  0x19, 0x6d, 0x2b, 0x3d, 0x7a, 0x93, 0x1c, 0xbd, 0x0c, 0x84, 0x29, 0x3d,
  0x5b, 0xd5, 0x38, 0x3d, 0x20, 0xc9, 0x0f, 0xbe, 0x23, 0x9a, 0xbe, 0xbd,
  0x5d, 0x2d, 0xec, 0xbd, 0x1c, 0xed, 0xdd, 0x3c, 0x70, 0x7e, 0xbe, 0x3d,
  0x1b, 0x37, 0x4d, 0xba, 0x85, 0x72, 0xbf, 0x3d, 0xd4, 0xab, 0xfd, 0xbc,
  0x54, 0xd2, 0x50, 0xbe, 0x7a, 0x88, 0x26, 0x3e, 0x20, 0x7d, 0x8b, 0x3d,
  0xb3, 0xd6, 0x16, 0x3e, 0x82, 0xeb, 0x33, 0x3b, 0x04, 0x5c, 0x68, 0x3e,
  0xbb, 0x62, 0x6d, 0xbe, 0x14, 0xb1, 0x4b, 0xbe, 0x41, 0xcf, 0xbb, 0x3d,
  0xe0, 0x75, 0x53, 0x3e, 0xe8, 0xc8, 0xb0, 0x3d, 0xcf, 0xfd, 0x17, 0x3e,
  0x51, 0xba, 0x8d, 0x3d, 0x70, 0xe8, 0x17, 0x3e, 0x68, 0x09, 0xd0, 0xbc,
  0x40, 0x80, 0x1d, 0xbe, 0xa6, 0x9f, 0x31, 0xbd, 0x68, 0x4b, 0x2b, 0xbe,
  0xdd, 0x90, 0xa7, 0x3e, 0x54, 0x3f, 0x86, 0x3d, 0xcc, 0x8e, 0x8f, 0x3d,
  0xf5, 0x8b, 0x90, 0x3c, 0x1f, 0xab, 0xeb, 0x3b, 0x81, 0xbe, 0x93, 0x3e,
  0xf8, 0xbc, 0x0d, 0x3e, 0xfa, 0x6d, 0xc5, 0xbd, 0xd1, 0xd1, 0x71, 0xbc,
  0xda, 0xbf, 0x11, 0x3e, 0x00, 0xa5, 0xc4, 0x3d, 0x79, 0x2b, 0x7f, 0xbe,
  0x03, 0xae, 0xc4, 0xbe, 0xb8, 0x2d, 0x5d, 0x3d, 0x0b, 0xa1, 0x87, 0xbe,
  0xc2, 0x49, 0xba, 0xbe, 0x71, 0x0d, 0xb9, 0xbd, 0x3a, 0xe3, 0x95, 0x3d,
  0x18, 0xde, 0xef, 0xbd, 0x1e, 0x65, 0x5c, 0x3e, 0xfd, 0x28, 0x87, 0x3d,
  0x35, 0x41, 0x9f, 0xbd, 0x92, 0x32, 0xf2, 0x3d, 0x72, 0x7b, 0x73, 0xbe,
  0xe2, 0xf0, 0x11, 0xbd, 0x5f, 0x05, 0x1f, 0xbe, 0x8e, 0xfe, 0x78, 0x3e,
  0xa6, 0xbe, 0x61, 0xbe, 0x43, 0xdd, 0x98, 0x3e, 0x9a, 0xad, 0x46, 0x3b,
  0x67, 0x96, 0x9a, 0xbe, 0xa1, 0xfd, 0x30, 0xbe, 0x0b, 0xa4, 0x7d, 0xbe,
  0xc0, 0x37, 0x09, 0xbe, 0x05, 0x7b, 0xae, 0xbb, 0xc0, 0xbf, 0xf6, 0x3d,
  0xf9, 0xa3, 0x8c, 0x3d, 0xdd, 0x8c, 0x5c, 0x3d, 0xf5, 0x04, 0x52, 0xbe,
  0x9b, 0xbf, 0x37, 0xbe, 0xac, 0x7e, 0x71, 0xbd, 0x5b, 0x0d, 0x64, 0xbb,
  0xce, 0x15, 0x04, 0xbe, 0x24, 0x02, 0xb0, 0xbd, 0x2d, 0xe6, 0x7e, 0xbe,
  0x3c, 0x3d, 0x7d, 0x3e, 0x3d, 0xb4, 0x1f, 0xbe, 0x11, 0xc5, 0x18, 0xbe,
  0x2a, 0x3f, 0x21, 0xbe, 0xbd, 0x7d, 0x9e, 0xbd, 0x5b, 0x89, 0xa3, 0x3d,
  0x3a, 0x9a, 0xbb, 0xbc, 0x0a, 0xb6, 0x36, 0x3d, 0x45, 0xd7, 0x23, 0x3e,
  0xa1, 0x27, 0xb0, 0x38, 0x8f, 0xaf, 0xf1, 0x3d, 0x6d, 0x97, 0x4d, 0x3d,
  0x49, 0x0f, 0xa7, 0x3d, 0x6a, 0x4d, 0x6d, 0xbc, 0xc8, 0x22, 0xc0, 0x3c,
  0xd9, 0xc9, 0xb2, 0x3e, 0x66, 0xe1, 0x3a, 0x3d, 0x14, 0xf7, 0x66, 0xbe,
  0x5f, 0x5f, 0xed, 0x3c, 0xf9, 0xbd, 0xef, 0xbd, 0x81, 0xd7, 0xe5, 0xbc,
  0xb9, 0x4e, 0x23, 0xbe, 0xcc, 0x34, 0x41, 0x3c, 0x02, 0x5a, 0xbe, 0x3a,
  0xe5, 0x45, 0xec, 0x3d, 0x7f, 0xfa, 0xa0, 0x3b, 0x1f, 0xf7, 0x53, 0xbb,
  0x6e, 0xdb, 0x0a, 0x3e, 0x6e, 0x6c, 0x1c, 0xbe, 0x49, 0x41, 0x23, 0x3c,
  0x6a, 0x3c, 0xe2, 0xbb, 0xf8, 0x97, 0x53, 0xbd, 0x76, 0xd8, 0x5b, 0x3e,
  0x69, 0x5b, 0x96, 0x3e, 0xff, 0x42, 0xc2, 0x3c, 0x35, 0xe9, 0xae, 0x3e,
  0x24, 0xdf, 0x84, 0xbe, 0xf5, 0xc5, 0x79, 0xbe, 0x73, 0x00, 0x09, 0xbd,
  0xa1, 0xba, 0xb6, 0xbe, 0x57, 0x35, 0xba, 0xbd, 0x63, 0x47, 0x46, 0x3e,
  0xe2, 0x90, 0x77, 0x3e, 0xf1, 0xd0, 0xd9, 0xbd, 0x63, 0x80, 0xac, 0x3d,
  0x2b, 0x2d, 0x65, 0xbe, 0xce, 0xd5, 0x18, 0x3d, 0x8c, 0xab, 0x27, 0xbe,
  0x31, 0xc0, 0x81, 0x3e, 0xee, 0x92, 0xcb, 0xbd, 0x63, 0x96, 0x97, 0xbe,
  0xee, 0xff, 0x69, 0x3d, 0xe4, 0x4b, 0xdf, 0xbc, 0xdc, 0xe2, 0x28, 0x3d,
  0x36, 0x82, 0xf6, 0x3e, 0xbe, 0x3c, 0xb3, 0x3e, 0x05, 0x08, 0x2f, 0x3d,
  0x77, 0x7b, 0xe7, 0xbd, 0x18, 0xd7, 0x2e, 0xbd, 0x09, 0x5e, 0xc4, 0xbd,
  0x0d, 0x8f, 0x51, 0xbe, 0x54, 0xec, 0x0d, 0x3e, 0x48, 0x89, 0x43, 0x3c,
  0x35, 0x2b, 0xd8, 0x3d, 0xcb, 0xec, 0xa9, 0xbd, 0xf4, 0xf3, 0xa9, 0x3d,
  0x59, 0x73, 0xef, 0x3d, 0x09, 0xbb, 0x84, 0x3d, 0xe8, 0xd5, 0x93, 0x3d,
  0x99, 0x48, 0x50, 0xbd, 0x1a, 0x0b, 0x3b, 0xbd, 0xbc, 0x1c, 0x45, 0x3e,
  0x82, 0x58, 0x1c, 0x3d, 0xaa, 0xcc, 0x9e, 0xbd, 0x19, 0xd2, 0x2d, 0xbe,
  0x3f, 0x85, 0x1d, 0x3c, 0x71, 0x84, 0x75, 0xbd, 0x15, 0xc8, 0xc7, 0xbd,
  0x85, 0xcc, 0x41, 0xbe, 0x8e, 0x29, 0x73, 0xbe, 0xb0, 0x23, 0x0b, 0xbe,
  0x7e, 0x94, 0x88, 0x3e, 0x2b, 0x91, 0x11, 0x3c, 0x56, 0x07, 0x94, 0x3e,
  0x1a, 0x23, 0xbf, 0x3d, 0x8d, 0xa1, 0x13, 0x3e, 0x3c, 0x05, 0x79, 0xbd,
  0x2a, 0xda, 0x0f, 0x3d, 0x09, 0xac, 0xc8, 0xbd, 0x59, 0xb0, 0x5d, 0x3e,
  0x7c, 0xf6, 0xad, 0x3d, 0x2d, 0xdb, 0x34, 0x3e, 0x4f, 0x6b, 0xb1, 0x3e,
  0xf4, 0x11, 0x55, 0xbe, 0x88, 0x22, 0xd5, 0xbd, 0x46, 0x1a, 0xcc, 0x3d,
  0x30, 0x7a, 0x73, 0x3d, 0xe5, 0xbd, 0x13, 0xbe, 0xfb, 0xcf, 0x1a, 0xbd,
  0x54, 0xab, 0xfb, 0xbd, 0x48, 0x64, 0xa2, 0x3c, 0xf4, 0xab, 0x02, 0x3d,
  0x4a, 0x8f, 0x18, 0xbd, 0x13, 0xc2, 0x64, 0x3d, 0x3d, 0xcd, 0x27, 0x3e,
  0xd7, 0x9e, 0x64, 0x3c, 0xd9, 0x43, 0x27, 0xbe, 0x33, 0xc9, 0xa4, 0x3e,
  0x83, 0x73, 0x22, 0xbe, 0x23, 0x50, 0xfe, 0x3d, 0xde, 0x71, 0x49, 0xbd,
  0x77, 0xef, 0x1b, 0x3e, 0x3d, 0x15, 0x1d, 0x3c, 0x86, 0xec, 0xed, 0xbd,
  0x3a, 0x52, 0xab, 0x3d, 0xe6, 0xed, 0x69, 0x3e, 0xf0, 0x10, 0x51, 0xbd,
  0x0f, 0x96, 0x06, 0xbd, 0x62, 0xb9, 0x1c, 0xbe, 0x38, 0x38, 0x70, 0xbe,
  0x0d, 0xf0, 0x3b, 0xbe, 0x39, 0xe8, 0x4a, 0x3e, 0xb4, 0xe8, 0xa7, 0xbd,
  0x32, 0xda, 0x3c, 0x3d, 0xf9, 0x61, 0x34, 0x3e, 0xe4, 0xad, 0xbf, 0xbd,
  0x94, 0x60, 0x4d, 0xbe, 0x9a, 0xbd, 0x8c, 0xbe, 0xf7, 0xdd, 0x4e, 0x3e,
  0xcd, 0x50, 0xca, 0xbe, 0xd2, 0xa9, 0x55, 0xbe, 0x40, 0x71, 0x47, 0xbe,
  0x21, 0xb0, 0x98, 0x3d, 0x73, 0x9a, 0xd4, 0xbd, 0xa5, 0xb4, 0x05, 0x3e,
  0xf5, 0xe6, 0x83, 0x3c, 0x44, 0x15, 0x41, 0xbe, 0xda, 0x86, 0x32, 0xbe,
  0x16, 0xda, 0xc8, 0xbe, 0x47, 0x83, 0x4a, 0x3d, 0x59, 0x8c, 0xdb, 0x3d,
  0xee, 0x84, 0x41, 0x3e, 0xe1, 0x9b, 0x17, 0x3e, 0xa6, 0xb1, 0x16, 0x3e,
  0x39, 0x40, 0xdf, 0xbc, 0x21, 0x71, 0x74, 0x3e, 0x45, 0xc0, 0x9c, 0xbd,
  0x14, 0xb2, 0xf8, 0xbd, 0x7f, 0x08, 0xfe, 0x3c, 0x04, 0x65, 0xb4, 0x3d,
  0x6c, 0x9f, 0x42, 0x3d, 0x79, 0x0d, 0x32, 0xbe, 0xfb, 0x66, 0xba, 0x3d,
  0x20, 0xb5, 0x86, 0x3d, 0x84, 0xa4, 0x88, 0x3d, 0x9f, 0x54, 0xf2, 0xbd,
  0xb8, 0x0e, 0xc6, 0x3d, 0xf6, 0x03, 0xff, 0x3d, 0xf7, 0xc5, 0x31, 0x3d,
  0x5f, 0x3e, 0x9f, 0x3d, 0x30, 0x56, 0x09, 0x3e, 0xdf, 0x9b, 0x59, 0x3e,
  0xdf, 0xf0, 0x41, 0x3e, 0x7f, 0xe9, 0x22, 0xbd, 0x2a, 0xcf, 0x8d, 0x3d,
  0x37, 0x8c, 0x99, 0x3e, 0x60, 0x4b, 0xf6, 0xbc, 0xeb, 0x4e, 0x1b, 0xbe,
  0x7f, 0x92, 0x85, 0xbe, 0xdf, 0x05, 0x25, 0x3e, 0x7d, 0x97, 0x2f, 0x3e,
  0xce, 0xf2, 0x86, 0xbe, 0xeb, 0x89, 0xe1, 0x3c, 0xa3, 0xc5, 0x0e, 0xbe,
  0x29, 0x1b, 0xa4, 0x3c, 0x4b, 0xee, 0x7b, 0xbe, 0x5e, 0x34, 0x36, 0xbd,
  0x05, 0xf6, 0x4b, 0xbe, 0xba, 0x93, 0xc4, 0xbd, 0x5b, 0x75, 0x6d, 0xbe,
  0x23, 0x20, 0xb2, 0xbb, 0x70, 0xbc, 0x1a, 0xbe, 0xcc, 0x54, 0x36, 0x3e,
  0x58, 0xaf, 0x34, 0x3e, 0x65, 0x17, 0xd7, 0xbd, 0x45, 0x86, 0xd2, 0xbd,
  0xf5, 0x03, 0x80, 0xbe, 0xa7, 0xe1, 0x84, 0x3e, 0x47, 0x8f, 0x31, 0xbc,
  0x3a, 0x69, 0xb6, 0x3e, 0x87, 0x1c, 0x66, 0xbe, 0x4e, 0x3b, 0x65, 0x3d,
  0xd0, 0xa7, 0xdf, 0x3d, 0x2a, 0x48, 0x93, 0xbd, 0x4a, 0x57, 0x1e, 0x3e,
  0xed, 0xae, 0xd8, 0xbd, 0xc6, 0x77, 0x4b, 0xbd, 0x3d, 0x1f, 0xe1, 0xbd,
  0x33, 0x49, 0x07, 0x3e, 0xa4, 0x83, 0x88, 0xbd, 0xc7, 0x60, 0x05, 0x3e,
  0xaa, 0x2c, 0x91, 0x3d, 0xca, 0x66, 0x6c, 0xbe, 0x54, 0x21, 0xf1, 0x3d,
  0x4a, 0x54, 0x10, 0xbe, 0xf2, 0xd6, 0xe5, 0x3d, 0x60, 0x10, 0x12, 0xbb,
  0x09, 0xdd, 0x3a, 0x3e, 0x68, 0x68, 0x8e, 0xbe, 0x01, 0x8e, 0xb4, 0x3e,
  0x8e, 0xaf, 0xbd, 0x3e, 0x1e, 0x8a, 0x88, 0xb9, 0x5f, 0xfd, 0xc4, 0xbd,
  0x96, 0x55, 0x2b, 0x3e, 0x66, 0x95, 0xf6, 0xbd, 0x99, 0xeb, 0x94, 0xbd,
  0xd2, 0xb6, 0xd4, 0x3b, 0x1e, 0x3b, 0x60, 0x3e, 0x94, 0x56, 0x2c, 0x3e,
  0x8e, 0x96, 0xd6, 0xbe, 0x64, 0x54, 0xff, 0x3e, 0xc8, 0xce, 0x40, 0xbd,
  0x94, 0x50, 0x66, 0xbd, 0x31, 0x78, 0x98, 0xbe, 0xd5, 0x56, 0x64, 0x3e,
  0x20, 0x9a, 0xe7, 0x3d, 0xf7, 0x2b, 0xa6, 0xbe, 0x91, 0x6a, 0x61, 0xbc,
  0x31, 0x6d, 0x69, 0xbe, 0x8d, 0x9d, 0x95, 0x3b, 0x01, 0x0d, 0x82, 0x3e,
  0x83, 0x75, 0x44, 0x3e, 0x62, 0xf0, 0x04, 0x3d, 0x14, 0xb8, 0x2d, 0xbb,
  0x09, 0xf6, 0xc2, 0xbe, 0x6e, 0xe5, 0x43, 0x3e, 0xa5, 0x78, 0x78, 0xbe,
  0x87, 0x2b, 0x90, 0x3e, 0xa6, 0xc6, 0x23, 0xbd, 0x40, 0x25, 0x83, 0x3d,
  0xfa, 0xa5, 0x65, 0xbe, 0x59, 0x9d, 0x2a, 0xbc, 0xbe, 0xdf, 0x02, 0xbd,
  0xfb, 0xc7, 0x05, 0xbe, 0x0f, 0xbe, 0x9d, 0x3d, 0x00, 0x0a, 0x5b, 0x3d,
  0xdb, 0xbf, 0xc2, 0xbd, 0x8d, 0x9e, 0xa9, 0xbd, 0x0d, 0x76, 0x06, 0xbe,
  0x65, 0x72, 0x11, 0xbd, 0x57, 0x6f, 0x78, 0x3e, 0x51, 0x10, 0x6b, 0x3c,
  0xf9, 0x70, 0xc3, 0xbc, 0x1e, 0xae, 0xc3, 0xbd, 0x2d, 0x8c, 0x06, 0x3d,
  0x16, 0x16, 0x8d, 0xbe, 0xe6, 0xd6, 0x8a, 0xbe, 0x56, 0x0f, 0xcf, 0x3e,
  0x6a, 0x35, 0x9a, 0x3e, 0x19, 0x06, 0x92, 0x3e, 0x58, 0xfc, 0x00, 0x3e,
  0x49, 0xba, 0x61, 0x3e, 0x53, 0x08, 0xb3, 0xbe, 0x24, 0x28, 0xdf, 0xbd,
  0x27, 0x31, 0x6f, 0xbe, 0xd4, 0x8f, 0x72, 0x3e, 0xc9, 0xe6, 0x5a, 0x3e,
  0xbf, 0x1c, 0x21, 0xbe, 0x90, 0x9b, 0x7e, 0x3e, 0x32, 0x2d, 0x49, 0xbe,
  0x6b, 0x88, 0x67, 0xbd, 0x99, 0x5a, 0xd3, 0xbe, 0x22, 0xcd, 0x7c, 0xbd,
  0x99, 0xb8, 0x89, 0x3d, 0x20, 0x94, 0xca, 0x3d, 0x1f, 0x67, 0x86, 0xbe,
  0x27, 0x8a, 0x2a, 0xbe, 0x21, 0xc9, 0xbd, 0x3d, 0x2b, 0x48, 0x43, 0xbe,
  0x90, 0xd2, 0x1d, 0x3e, 0x5d, 0xbe, 0x7f, 0x3d, 0xec, 0x8c, 0xa7, 0xbe,
  0xdf, 0xf7, 0x22, 0xbe, 0xe3, 0xe7, 0xf8, 0x3d, 0x4d, 0xc0, 0x36, 0x3e,
  0xd7, 0xe5, 0x36, 0xbe, 0x9a, 0xe0, 0x66, 0x3e, 0x4d, 0x42, 0x06, 0xbd,
  0xfb, 0x58, 0x75, 0xbe, 0x31, 0x2f, 0x5c, 0xbc, 0xd1, 0x21, 0xd0, 0x3d,
  0xc8, 0x52, 0x83, 0xbc, 0xf0, 0xa0, 0x82, 0x3c, 0x96, 0x23, 0x7a, 0x3d,
  0xa6, 0x39, 0xd5, 0xbd, 0xe6, 0xcb, 0xa7, 0xbd, 0x1d, 0x28, 0x1c, 0xbe,
  0xae, 0xd2, 0x71, 0xbd, 0x83, 0xd6, 0x01, 0xbd, 0x16, 0x3a, 0xb9, 0xbd,
  0x80, 0x5b, 0x1a, 0xbe, 0xda, 0x7f, 0x06, 0x3e, 0xfc, 0x30, 0xcf, 0xbc,
  0x7d, 0x1f, 0x40, 0xbd, 0xef, 0x01, 0x21, 0xbd, 0x49, 0x2f, 0xd7, 0x3d,
  0x91, 0x8e, 0xac, 0xbd, 0x8d, 0xfa, 0x46, 0x3e, 0x05, 0x3b, 0x4c, 0xbc,
  0xee, 0x61, 0x22, 0x3e, 0x91, 0x52, 0x6c, 0xbd, 0x95, 0xb9, 0x98, 0xbd,
  0xed, 0x8a, 0x5e, 0xbe, 0x49, 0x69, 0x44, 0x3c, 0x7d, 0xfc, 0x2f, 0xbd,
  0xdc, 0xe0, 0x8a, 0x3b, 0xd8, 0x5f, 0x95, 0x3e, 0x29, 0x55, 0xd6, 0xbd,
  0x19, 0xf0, 0x45, 0x3e, 0x6e, 0x45, 0xe6, 0xbd, 0xdf, 0x82, 0x93, 0xbe,
  0xd1, 0xad, 0x6b, 0x3e, 0x68, 0x4a, 0x54, 0xbc, 0x3c, 0x09, 0xbb, 0x3d,
  0xc2, 0xaf, 0x69, 0x3e, 0xc2, 0x3a, 0x43, 0xbb, 0xeb, 0x7c, 0x1b, 0xbe,
  0x3a, 0x63, 0x1e, 0xbe, 0x82, 0xbc, 0xa1, 0xbd, 0x9d, 0xde, 0xa8, 0x3e,
  0x5f, 0x04, 0xaa, 0xbd, 0x0d, 0xb8, 0x54, 0xbe, 0x2c, 0xd9, 0x82, 0x3e,
  0x20, 0xae, 0x93, 0xbe, 0xeb, 0xf9, 0xc2, 0xbd, 0x64, 0xda, 0x60, 0xbe,
  0xbd, 0xd9, 0x93, 0x3e, 0x2d, 0xb8, 0xe8, 0x3d, 0x13, 0x2d, 0x31, 0x3e,
  0x95, 0x6e, 0x1c, 0x3d, 0xe7, 0x0b, 0xad, 0xbb, 0x0c, 0x8d, 0x1c, 0xbe,
  0xd9, 0x85, 0x04, 0xbc, 0x3d, 0x8e, 0x03, 0xbd, 0x36, 0xa6, 0x22, 0x3e,
  0xd4, 0xf5, 0x55, 0x3e, 0x57, 0x07, 0x83, 0x3d, 0xfc, 0x7f, 0x65, 0x3d,
  0x89, 0x60, 0x82, 0xbc, 0xf6, 0x15, 0x0d, 0xbe, 0xc2, 0x67, 0x30, 0xbe,
  0xdb, 0x50, 0x15, 0xbe, 0xfc, 0x38, 0x23, 0xbe, 0xe5, 0xeb, 0x08, 0x3e,
  0xe1, 0x47, 0x5b, 0xbe, 0x75, 0xdd, 0xe9, 0xbd, 0x4c, 0xb2, 0x45, 0xbe,
  0xf0, 0x36, 0xb4, 0xbd, 0x9a, 0x74, 0x67, 0xbd, 0x6a, 0x3e, 0x61, 0xbe,
  0x4a, 0xe0, 0xa2, 0x3c, 0x47, 0xe4, 0x88, 0x3e, 0x3e, 0xb5, 0x45, 0x3e,
  0xb9, 0xf0, 0xf1, 0xbc, 0xfa, 0xfd, 0x60, 0x3e, 0x09, 0xe0, 0x77, 0xbe,
  0xc1, 0x42, 0xb8, 0xbe, 0xb2, 0x68, 0xce, 0x3c, 0xbf, 0x4b, 0xdc, 0x3d,
  0xf9, 0x0f, 0x90, 0xbe, 0xec, 0x50, 0x02, 0xbe, 0x40, 0x36, 0x86, 0xbc,
  0xe2, 0xc6, 0x67, 0xbe, 0x16, 0x5e, 0xed, 0xbd, 0x03, 0x76, 0x08, 0x3d,
  0xa4, 0x83, 0x26, 0x3e, 0x98, 0xea, 0xc8, 0x3c, 0xb2, 0xcf, 0x65, 0x3d,
  0xe9, 0x3f, 0x8d, 0xbe, 0x75, 0x6d, 0x27, 0x3d, 0x8c, 0xda, 0x46, 0xbc,
  0xec, 0xdc, 0x05, 0x3e, 0xa0, 0x89, 0xc8, 0x3d, 0x56, 0xb2, 0xf6, 0x3d,
  0x0a, 0x54, 0x62, 0x3e, 0x4d, 0x5c, 0x0c, 0xbc, 0x5e, 0x29, 0xf4, 0xbd,
  0xa8, 0xfd, 0xc4, 0xbd, 0x3b, 0xfe, 0xd3, 0xbd, 0x34, 0xfb, 0xe7, 0x3c,
  0x3f, 0x82, 0x19, 0x3e, 0xef, 0x9e, 0xf9, 0x3b, 0x92, 0xf4, 0x4b, 0x3c,
  0xc5, 0xaf, 0x6f, 0xbe, 0x5e, 0xd4, 0x4b, 0xbe, 0x36, 0xdd, 0x39, 0x3e,
  0x40, 0x77, 0x03, 0xbe, 0x12, 0x23, 0x64, 0x3e, 0xbf, 0xde, 0xc8, 0xbd,
  0x78, 0x76, 0x4d, 0x3e, 0x27, 0xfc, 0xb7, 0x3e, 0x43, 0x77, 0x13, 0xbe,
  0x24, 0xd0, 0x67, 0xbe, 0x7e, 0x93, 0x40, 0xbe, 0x8c, 0xee, 0x16, 0xbe,
  0xbf, 0x80, 0x1a, 0xbe, 0x4b, 0x5e, 0x35, 0x3e, 0x5c, 0xa2, 0x0a, 0x3e,
  0x5b, 0x5d, 0x36, 0xbe, 0xeb, 0x4d, 0x35, 0xbe, 0xd8, 0x6e, 0x3e, 0x3d,
  0xc3, 0x36, 0x60, 0x3e, 0x44, 0x88, 0xc5, 0xbe, 0x40, 0xe5, 0xd1, 0x3e,
  0x22, 0x90, 0x1b, 0x3d, 0xd0, 0x70, 0x92, 0x3e, 0x8f, 0x85, 0x7b, 0xbe,
  0x61, 0x4f, 0xfb, 0xbc, 0xa8, 0xce, 0xb5, 0x3d, 0x2c, 0xab, 0x4c, 0xbe,
  0x2f, 0x37, 0x27, 0xbe, 0x34, 0xb7, 0xd0, 0x3d, 0x2a, 0xdd, 0x37, 0xbe,
  0x47, 0x9c, 0x0f, 0x3e, 0x16, 0xb9, 0x79, 0xbe, 0x63, 0x3e, 0x52, 0xbd,
  0x4f, 0x3b, 0x13, 0x3e, 0x77, 0x17, 0x39, 0xbc, 0x59, 0xed, 0xce, 0xbd,
  0x13, 0x5b, 0xdf, 0xbd, 0x53, 0xcf, 0xd5, 0xbd, 0x4b, 0x8e, 0x11, 0x3e,
  0xa4, 0xc8, 0x01, 0x3c, 0xe3, 0xad, 0x17, 0x3e, 0xb1, 0xd3, 0xa6, 0x3d,
  0x05, 0xe1, 0xdd, 0x3d, 0xe8, 0x46, 0xe2, 0xbc, 0x7d, 0xd9, 0xdc, 0x3d,
  0x17, 0x87, 0x4c, 0xbd, 0xeb, 0xe6, 0xf7, 0xbd, 0x72, 0xbb, 0x83, 0xbd,
  0x14, 0xc6, 0x05, 0xbe, 0xa6, 0x6d, 0x5a, 0x3d, 0xdb, 0xbb, 0x1b, 0x3e,
  0x93, 0xa0, 0xab, 0x3e, 0x68, 0xfa, 0x5e, 0xbe, 0x81, 0xfa, 0xa4, 0xbd,
  0xfb, 0xdb, 0x36, 0xbe, 0xc2, 0x5d, 0xff, 0x3d, 0xd8, 0x11, 0x7a, 0x3e,
  0xbf, 0xf7, 0xb9, 0x3d, 0x4b, 0x71, 0x06, 0x3e, 0x8a, 0xa5, 0x54, 0x3e,
  0x85, 0x65, 0x84, 0x3d, 0x15, 0x04, 0xca, 0x3a, 0x19, 0xd8, 0x83, 0xbd,
  0x05, 0x7f, 0x97, 0x3c, 0xa5, 0xbf, 0x56, 0x3e, 0xaa, 0x50, 0x3f, 0xbd,
  0x74, 0xd3, 0xbb, 0x3d, 0x0e, 0x0d, 0x49, 0xbd, 0xc5, 0x0d, 0x84, 0xbd,
  0x4f, 0x74, 0x3b, 0x3e, 0x31, 0x62, 0xa8, 0xbe, 0xa9, 0xf6, 0xb2, 0xbd,
  0x54, 0x69, 0x37, 0x3d, 0x9b, 0xe3, 0x44, 0xbe, 0x9e, 0x31, 0xc3, 0xbd,
  0xb4, 0x7c, 0xdd, 0xbc, 0xfe, 0x41, 0x63, 0xbd, 0xf8, 0x3d, 0xcb, 0x3d,
  0x37, 0x2c, 0x04, 0x3e, 0x59, 0x11, 0xe1, 0xbb, 0xd7, 0x74, 0xc7, 0xbd,
  0x08, 0x60, 0x1e, 0xbe, 0xcb, 0xf6, 0x87, 0xbd, 0xb0, 0x21, 0x97, 0xbe,
  0xa9, 0x07, 0x8a, 0x3e, 0x7a, 0xf1, 0xb4, 0x3d, 0x7b, 0x77, 0x25, 0x3d,
  0x45, 0x06, 0xd7, 0xbd, 0x7b, 0x4f, 0x20, 0xbd, 0xef, 0x5e, 0x52, 0x3e,
  0xe8, 0x40, 0xac, 0x3e, 0xd5, 0x22, 0x04, 0x3d, 0xe1, 0x8b, 0x19, 0x3e,
  0xeb, 0x87, 0x04, 0x3e, 0x7d, 0x44, 0x85, 0xbd, 0xb5, 0xea, 0xb7, 0x3d,
  0xde, 0xec, 0x1a, 0xbe, 0xa7, 0x4f, 0x8b, 0x3d, 0x5c, 0x5d, 0x46, 0xbe,
  0x9a, 0xd5, 0xbc, 0x3b, 0x79, 0xfc, 0x85, 0xbe, 0x82, 0x25, 0xd3, 0xbb,
  0xba, 0x79, 0xc5, 0xbc, 0xcd, 0x79, 0xe4, 0x3c, 0xb3, 0x2f, 0x03, 0xbe,
  0x2a, 0x27, 0xf2, 0x3d, 0x2b, 0x78, 0x90, 0x3d, 0x7d, 0xba, 0xf6, 0x3b,
  0xbe, 0x4d, 0x89, 0xbb, 0x72, 0x92, 0xaf, 0x3d, 0x04, 0xcd, 0xb2, 0x3e,
  0xe4, 0x53, 0x13, 0x3d, 0xa3, 0x79, 0x79, 0xbd, 0x1c, 0x73, 0xea, 0x3d,
  0x95, 0xb1, 0x2d, 0x3d, 0xe2, 0xd0, 0x31, 0x3d, 0x97, 0x05, 0xb5, 0x3d,
  0xa7, 0xae, 0xc9, 0xbd, 0x95, 0x0e, 0xd5, 0x3d, 0xbd, 0xb8, 0xc0, 0x3b,
  0xa7, 0x06, 0xd6, 0x3d, 0xa6, 0x93, 0x02, 0x3d, 0x62, 0xbb, 0x8b, 0x3d,
  0xfb, 0x67, 0x22, 0x3e, 0x3d, 0xea, 0xc0, 0x3d, 0x0c, 0xcc, 0x80, 0x3c,
  0x16, 0x46, 0x3c, 0xbe, 0xdd, 0x6b, 0xc9, 0xbd, 0x0d, 0x78, 0xcc, 0x3d,
  0xca, 0x1b, 0x94, 0xbd, 0xd4, 0x69, 0x2d, 0xbd, 0xe0, 0x4e, 0xa9, 0xbc,
  0x97, 0x08, 0x97, 0xbe, 0x10, 0x45, 0xd1, 0xbd, 0x47, 0x44, 0x44, 0xbd,
  0xef, 0xe3, 0x43, 0x3d, 0xf1, 0x11, 0xa7, 0xbd, 0x15, 0xf4, 0x06, 0xbe,
  0x43, 0xe9, 0x8b, 0xbe, 0xf1, 0xe6, 0xc8, 0x3e, 0x03, 0xdd, 0x69, 0xbe,
  0x24, 0xe6, 0x40, 0x3e, 0x5b, 0x33, 0xac, 0x3e, 0x3a, 0x13, 0x46, 0x3e,
  0x59, 0x5b, 0xd0, 0xbd, 0xb2, 0x0e, 0x12, 0x3c, 0xc3, 0xce, 0xdd, 0x3d,
  0xaf, 0x76, 0xc0, 0x3c, 0xa9, 0xaf, 0x4f, 0x3c, 0xc5, 0xd3, 0x33, 0x3d,
  0xad, 0xf2, 0x86, 0x3d, 0x6c, 0x49, 0x4a, 0xbe, 0x1f, 0xa5, 0x67, 0x3c,
  0xa6, 0x8b, 0xb9, 0x3e, 0x57, 0xc6, 0xee, 0x3d, 0xb6, 0x0e, 0x1e, 0x3b,
  0xdd, 0xd4, 0x55, 0x3e, 0x6c, 0xa3, 0xbd, 0xbe, 0xd6, 0x73, 0x2a, 0x3a,
  0x25, 0x0d, 0xbf, 0x3c, 0xa3, 0xb8, 0x93, 0x3d, 0xf6, 0x34, 0x4b, 0x3e,
  0xda, 0xda, 0x21, 0xbe, 0x91, 0x45, 0xe0, 0x3d, 0x61, 0x2a, 0x81, 0x3c,
  0xcd, 0x21, 0xa8, 0xbd, 0x5a, 0x2c, 0x36, 0xbe, 0x51, 0xe9, 0x7d, 0xbe,
  0x89, 0x8e, 0x16, 0x3e, 0xb3, 0x61, 0x9d, 0xbb, 0xef, 0x41, 0xcb, 0x3d,
  0x72, 0xf3, 0x17, 0x3b, 0x02, 0xcc, 0x19, 0x3e, 0x7d, 0x8c, 0xed, 0x3c,
  0x7f, 0xf4, 0xcd, 0xbd, 0xbc, 0xe1, 0xc8, 0x3d, 0x59, 0x01, 0x56, 0xbd,
  0x5e, 0x78, 0x85, 0x3d, 0xc4, 0x53, 0xa4, 0x3d, 0xb1, 0x3f, 0xfc, 0x3d,
  0xc8, 0x3d, 0x1d, 0xbc, 0xe9, 0xcb, 0xde, 0x3d, 0xcc, 0xe9, 0xbf, 0xbd,
  0x24, 0x41, 0xe3, 0xbd, 0x9c, 0x01, 0x4c, 0x3e, 0x3b, 0xb5, 0xdc, 0xbd,
  0xf6, 0xe3, 0xad, 0xbc, 0xda, 0x5d, 0xf7, 0x3c, 0x92, 0xce, 0x04, 0xbe,
  0xb6, 0x31, 0xfb, 0x3d, 0x83, 0x3b, 0x8a, 0x3d, 0x99, 0x76, 0xf2, 0xbd,
  0x04, 0x99, 0xc1, 0xbd, 0xc9, 0x17, 0x9b, 0xbc, 0x99, 0x50, 0xf5, 0x3b,
  0xa5, 0x37, 0x25, 0x3e, 0x7d, 0xba, 0x8a, 0xba, 0x08, 0xb5, 0x68, 0xbe,
  0x71, 0xad, 0x48, 0xbe, 0x4d, 0x94, 0x88, 0x3d, 0xfd, 0x2b, 0x7d, 0xbe,
  0x78, 0xb9, 0xac, 0xbe, 0xc8, 0x85, 0xb8, 0xbc, 0x97, 0x44, 0x87, 0xbe,
  0x3d, 0xc5, 0x2b, 0x3d, 0x12, 0xfe, 0xfe, 0x3e, 0x17, 0x5c, 0x92, 0x3e,
  0x31, 0x11, 0x89, 0x3e, 0xf8, 0xe8, 0xa8, 0xbb, 0x76, 0x9a, 0xa0, 0xbe,
  0xc2, 0x24, 0x5d, 0x3e, 0x3a, 0x4c, 0x16, 0xbe, 0x46, 0x82, 0x7f, 0x3e,
  0x8e, 0x3e, 0x05, 0x3d, 0x12, 0x50, 0xc4, 0x3e, 0x69, 0x55, 0x02, 0x3e,
  0x29, 0x3e, 0x12, 0x3d, 0xd7, 0xb9, 0xa3, 0x3e, 0x5e, 0x47, 0xec, 0xbd,
  0xb4, 0x4d, 0x94, 0xbe, 0xab, 0x05, 0xca, 0xbd, 0x42, 0x97, 0xb0, 0x3d,
  0x35, 0x3d, 0xc0, 0x3d, 0xe9, 0xb5, 0x15, 0xbd, 0xec, 0x37, 0x1d, 0x3e,
  0xd3, 0x5b, 0xdf, 0x3d, 0xa1, 0xe0, 0xf5, 0x3d, 0xa7, 0x4c, 0x64, 0x3e,
  0xed, 0x3f, 0x11, 0x3e, 0x0b, 0x6d, 0xc6, 0xbd, 0x6e, 0x12, 0x33, 0xbe,
  0x7a, 0xd8, 0x9e, 0xbb, 0xee, 0xb7, 0x1b, 0xbd, 0x94, 0x8e, 0xb0, 0x3d,
  0xd7, 0xaf, 0xf9, 0x3c, 0xec, 0x40, 0xb4, 0x3b, 0x6b, 0xad, 0x0c, 0xbc,
  0xae, 0xd3, 0x0d, 0x3e, 0xb7, 0xb5, 0x43, 0x3e, 0xe7, 0x13, 0x29, 0x3e,
  0xa6, 0x86, 0x18, 0x3c, 0x21, 0x35, 0xee, 0x3d, 0x47, 0x5f, 0x02, 0x3e,
  0x19, 0x26, 0x99, 0x3d, 0x66, 0x74, 0x20, 0x3d, 0x2f, 0x2e, 0x71, 0x3e,
  0xd0, 0x4f, 0xf1, 0xbc, 0x7d, 0xe3, 0x15, 0xbe, 0xb7, 0x68, 0x0d, 0x3d,
  0x3c, 0x77, 0x56, 0xbe, 0xb4, 0x83, 0x43, 0x3e, 0xc0, 0x8e, 0xc2, 0xbd,
  0x63, 0x19, 0x0f, 0x3d, 0x8d, 0x32, 0x85, 0xbe, 0xef, 0x94, 0xb2, 0xbd,
  0x64, 0x10, 0x80, 0x3d, 0x59, 0x98, 0xe7, 0x3d, 0xc1, 0x0a, 0x80, 0x3e,
  0xce, 0xb2, 0xd6, 0xbd, 0x93, 0x2b, 0x0f, 0x3e, 0x31, 0x97, 0x40, 0x3d,
  0xd5, 0xc6, 0x87, 0x3e, 0xda, 0x0b, 0x19, 0xbe, 0x88, 0xcb, 0x1c, 0x3e,
  0x5e, 0xa7, 0x97, 0x3c, 0x20, 0x41, 0xf3, 0xbd, 0x0a, 0xe3, 0x11, 0x3e,
  0x4b, 0xff, 0x5f, 0xbe, 0x26, 0xb8, 0x77, 0xbe, 0xfb, 0xb6, 0xa4, 0xbd,
  0x18, 0x72, 0x5b, 0x3d, 0xe5, 0x09, 0xa2, 0x3d, 0x0f, 0x06, 0xb3, 0xbe,
  0xf3, 0x4c, 0x00, 0xbc, 0xd9, 0xbb, 0xd5, 0x3d, 0x56, 0x2b, 0xd5, 0xbd,
  0x60, 0x83, 0x8c, 0x3e, 0x51, 0xba, 0x24, 0xbe, 0xb9, 0xd2, 0x8e, 0xbb,
  0xae, 0x47, 0x48, 0x3e, 0xf7, 0x39, 0x87, 0x3d, 0x5d, 0x71, 0xfd, 0x3d,
  0xb0, 0x91, 0x53, 0xbe, 0x05, 0xa8, 0x0e, 0xbe, 0x49, 0x0a, 0x32, 0xbd,
  0xac, 0x6a, 0x65, 0xbb, 0x85, 0xe7, 0x1f, 0x3e, 0xac, 0x3f, 0x71, 0x3e,
  0x25, 0x76, 0x05, 0xbe, 0xcb, 0xa1, 0x84, 0xbe, 0x53, 0x44, 0x2c, 0x3d,
  0xc7, 0xe2, 0x7f, 0xbd, 0x8d, 0x79, 0xc6, 0x3c, 0xd7, 0x05, 0x84, 0x3d,
  0xbf, 0x75, 0x3e, 0x3e, 0x48, 0x34, 0x81, 0xbe, 0x58, 0xda, 0x42, 0x3d,
  0x13, 0xd4, 0x3a, 0x3e, 0xed, 0x9b, 0x1c, 0x3e, 0xf8, 0x7c, 0x91, 0x3d,
  0xf4, 0x48, 0x44, 0xbe, 0xde, 0xe6, 0x07, 0x3e, 0x82, 0x1a, 0x33, 0xbc,
  0x16, 0x12, 0x22, 0xbe, 0x79, 0xc3, 0x64, 0x3e, 0x5f, 0x83, 0x63, 0x3d,
  0xc4, 0xeb, 0x0b, 0xbe, 0x05, 0x6e, 0xf2, 0xb9, 0xd8, 0x75, 0x4e, 0xbe,
  0x0c, 0xfb, 0x20, 0x3e, 0x07, 0x42, 0x03, 0xbe, 0x48, 0x6d, 0xe6, 0xbd,
  0xa7, 0x3f, 0x2f, 0xba, 0xa6, 0xa7, 0xab, 0x3d, 0x8e, 0xa5, 0xa0, 0x3d,
  0xe5, 0xef, 0x76, 0xbc, 0xdc, 0x5a, 0x14, 0xbe, 0xac, 0xa6, 0xf0, 0x3d,
  0x1b, 0x63, 0x3c, 0xbe, 0x4b, 0x42, 0x4b, 0x3d, 0x58, 0x71, 0x9f, 0xbd,
  0x88, 0x2d, 0x0f, 0x3e, 0xd7, 0x4f, 0xcb, 0xbd, 0x62, 0xa6, 0xd2, 0x3d,
  0xd3, 0xa0, 0x3e, 0xbe, 0x7a, 0x6c, 0xc6, 0x3c, 0xd2, 0xb2, 0xa8, 0xbd,
  0x4e, 0x8b, 0xcd, 0x3b, 0xbc, 0xe9, 0x94, 0x3c, 0xb7, 0x9c, 0x2c, 0x3e,
  0x1d, 0x13, 0x90, 0x3e, 0xbf, 0xcc, 0x05, 0x3e, 0x5f, 0x9d, 0xb1, 0xbb,
  0x7b, 0xfd, 0x05, 0xbe, 0xdc, 0x26, 0x2a, 0xbc, 0x72, 0x44, 0x34, 0xbe,
  0x5e, 0x81, 0xd1, 0x3d, 0xbb, 0x8e, 0xe6, 0x3d, 0x60, 0xdc, 0x6f, 0x3e,
  0x84, 0x37, 0x76, 0x3d, 0x82, 0x84, 0x98, 0xbe, 0x3f, 0xf7, 0x04, 0x3e,
  0x33, 0x0e, 0xa4, 0xbd, 0xd5, 0x0d, 0x40, 0xbd, 0xb5, 0xb5, 0xa6, 0x3e,
  0xcd, 0x89, 0x37, 0x3e, 0x8d, 0x52, 0x20, 0x3d, 0x86, 0x29, 0x94, 0xbc,
  0x22, 0x81, 0xbb, 0xbe, 0x59, 0xf8, 0x2a, 0xbe, 0xaa, 0xa2, 0x8d, 0xbe,
  0x4e, 0x30, 0x0a, 0xbc, 0x6f, 0x0e, 0x16, 0x3e, 0xd4, 0xce, 0xa8, 0xbc,
  0xa3, 0x70, 0xd4, 0x3c, 0x35, 0x5f, 0x10, 0xbd, 0x38, 0xe3, 0x9f, 0xbd,
  0xa9, 0xce, 0xac, 0x3e, 0x5e, 0x27, 0x65, 0x3d, 0x69, 0x4b, 0xca, 0xbd,
  0xfc, 0xd9, 0x75, 0xbe, 0x71, 0x35, 0x03, 0x3d, 0x69, 0xd0, 0x02, 0xbe,
  0x98, 0x45, 0x60, 0xbe, 0xba, 0xb8, 0x6a, 0x3d, 0x3a, 0xc7, 0x14, 0xbd,
  0xef, 0x3d, 0x36, 0x3d, 0x57, 0x0b, 0xd5, 0x3d, 0x1a, 0xd9, 0x8d, 0xbd,
  0x07, 0xbb, 0x44, 0x3e, 0xfc, 0x0b, 0x55, 0x3e, 0xe3, 0x3b, 0xbb, 0xbd,
  0x4f, 0x00, 0xe0, 0x3c, 0x27, 0x39, 0xac, 0x3d, 0xb5, 0x54, 0x3e, 0xbc,
  0x9c, 0x18, 0x33, 0xbe, 0x65, 0x97, 0xd9, 0x3d, 0xf6, 0xd4, 0x43, 0x3e,
  0x9a, 0xbb, 0x52, 0x3e, 0x15, 0xbb, 0x0a, 0xbd, 0xd2, 0xac, 0x56, 0xbe,
  0x80, 0x7a, 0x23, 0xbe, 0xbb, 0x20, 0xf5, 0x3c, 0x3e, 0x54, 0x36, 0xbe,
  0x5f, 0x68, 0x40, 0xbe, 0x8c, 0x96, 0x11, 0x3c, 0x44, 0x69, 0x3b, 0x3d,
  0x77, 0x04, 0x46, 0x3c, 0xfc, 0xc9, 0x42, 0xbd, 0x7f, 0x1e, 0x23, 0x3d,
  0x72, 0x88, 0x42, 0x3c, 0x97, 0x59, 0x98, 0xbe, 0x4b, 0x05, 0xaa, 0xbc,
  0x04, 0x8a, 0xb5, 0x3e, 0x25, 0xff, 0xbc, 0x3c, 0xfe, 0xfd, 0x40, 0x3e,
  0x77, 0x54, 0x49, 0x3e, 0xb6, 0x87, 0x7a, 0xbd, 0x93, 0x01, 0xa3, 0xbe,
  0x8f, 0xc9, 0x9c, 0x3d, 0x79, 0xde, 0x81, 0x3d, 0x4e, 0x69, 0xff, 0x3d,
  0x31, 0x98, 0x90, 0xbc, 0x59, 0xeb, 0x21, 0x3e, 0x3b, 0x6e, 0x02, 0xbd,
  0x0f, 0xa7, 0xd5, 0x3c, 0x97, 0x08, 0x49, 0xbd, 0xaa, 0xc4, 0xff, 0xff,
  0x04, 0x00, 0x00, 0x00, 0x00, 0x09, 0x00, 0x00, 0xe8, 0x42, 0x02, 0x3e,
  0xa6, 0x93, 0xca, 0xbe, 0xf8, 0x99, 0x0c, 0xbd, 0x0e, 0xcf, 0xe3, 0xbc,
  0xd8, 0x01, 0x7a, 0x3d, 0x09, 0xb6, 0x87, 0x3d, 0x47, 0x0f, 0x54, 0x3e,
  0x66, 0x61, 0xfb, 0xbd, 0xb2, 0xfd, 0xbd, 0xbe, 0xa9, 0xec, 0x89, 0xbe,
  0xd6, 0x49, 0x54, 0xbd, 0x1f, 0x6f, 0x36, 0xbe, 0x60, 0xee, 0x25, 0x3e,
  0x82, 0xff, 0x0c, 0xbe, 0x35, 0xbc, 0x29, 0xbe, 0xee, 0x21, 0x82, 0x3e,
  0xb7, 0xc7, 0x33, 0x3e, 0x06, 0xfa, 0x29, 0x3e, 0x85, 0xfb, 0x5a, 0x3e,
  0x55, 0x87, 0x7e, 0xbd, 0xc7, 0xc7, 0xb6, 0x3c, 0x5d, 0xc4, 0x23, 0x3d,
  0x74, 0xdc, 0x06, 0x3e, 0x94, 0x47, 0x2e, 0x3e, 0x89, 0x60, 0xd7, 0x3d,
  0xfe, 0x33, 0xbe, 0xbd, 0x6b, 0xaa, 0x8a, 0xbe, 0xc3, 0x25, 0x41, 0xbe,
  0xe3, 0xea, 0xe4, 0xbe, 0x1c, 0x9f, 0xba, 0x3e, 0x86, 0xf2, 0x34, 0xbc,
  0x74, 0x07, 0x53, 0x3c, 0x31, 0x7a, 0xd2, 0xbd, 0xb6, 0x14, 0x55, 0xbe,
  0x51, 0x8e, 0x7a, 0x3e, 0xbe, 0x31, 0x5e, 0xbe, 0xec, 0x4d, 0xda, 0x3d,
  0x1e, 0xf4, 0x8f, 0xbe, 0xa4, 0x25, 0x4a, 0xbe, 0x29, 0x4a, 0x83, 0xbe,
  0xfb, 0x13, 0xbf, 0xbd, 0x56, 0x31, 0x38, 0x3e, 0x68, 0x21, 0x1f, 0xbe,
  0xdd, 0x59, 0xd2, 0x3d, 0x84, 0x33, 0x17, 0x3e, 0x6d, 0x79, 0x4f, 0xbe,
  0xf9, 0xad, 0x8e, 0x3e, 0x80, 0x29, 0xc4, 0x3d, 0x8d, 0x82, 0xdb, 0xbc,
  0xf2, 0x2a, 0x19, 0xbc, 0x47, 0xf4, 0x8b, 0x3d, 0x3c, 0x7c, 0x27, 0xbd,
  0xe2, 0x11, 0xc0, 0x3e, 0xb6, 0x46, 0x28, 0xbe, 0x1a, 0x5d, 0x47, 0x3e,
  0x49, 0x23, 0x34, 0xbe, 0x6f, 0xf3, 0xdb, 0xbd, 0xff, 0xdd, 0xcf, 0xbd,
  0x3a, 0x5a, 0xa4, 0x3e, 0x83, 0x34, 0x9a, 0x3d, 0xab, 0x05, 0x4e, 0x3e,
  0xe7, 0xe7, 0xb8, 0x3b, 0xc1, 0x03, 0x43, 0x3e, 0xdd, 0xbc, 0xb8, 0xbe,
  0xdd, 0xbc, 0xa7, 0xbe, 0x13, 0x66, 0xc8, 0xbd, 0x92, 0x1f, 0x40, 0x3d,
  0x2d, 0xcd, 0x54, 0xbd, 0x5c, 0x52, 0x0b, 0xbd, 0x50, 0x0a, 0xfc, 0xbe,
  0xdc, 0x14, 0xb1, 0xbc, 0x87, 0x30, 0xb1, 0xbc, 0x03, 0xac, 0x97, 0x3c,
  0x0f, 0x9f, 0xb0, 0xbc, 0x05, 0x3c, 0x68, 0x3e, 0xcb, 0x4e, 0xc8, 0xbd,
  0x1c, 0xb2, 0xf2, 0xbd, 0x23, 0xe7, 0x62, 0xbd, 0x68, 0xed, 0x1e, 0x3e,
  0x48, 0x1e, 0x97, 0x3e, 0xda, 0x98, 0x41, 0xbd, 0x52, 0x52, 0xcf, 0x3d,
  0x3f, 0x06, 0xb1, 0x3d, 0xe5, 0x13, 0x98, 0xbd, 0x14, 0x70, 0x20, 0xbe,
  0x31, 0x08, 0x87, 0x3c, 0x00, 0xb5, 0x38, 0x3e, 0x9b, 0x71, 0xee, 0x3d,
  0xe3, 0x9a, 0x57, 0xbe, 0x63, 0x1f, 0x33, 0xbe, 0x4b, 0x3d, 0x2c, 0x3e,
  0x1f, 0xb3, 0x4c, 0x3d, 0xc2, 0x4f, 0x9a, 0xbe, 0x93, 0xfd, 0x4a, 0xbe,
  0xa9, 0x40, 0xe4, 0xbd, 0xcb, 0x56, 0x86, 0xbe, 0xfb, 0x56, 0x4e, 0xbc,
  0x1c, 0x6b, 0xc4, 0xbe, 0x81, 0x6d, 0xaa, 0xbd, 0x66, 0xe3, 0xad, 0x3e,
  0x3f, 0x05, 0x1f, 0x3e, 0xce, 0x47, 0xcd, 0x3d, 0xd0, 0x29, 0x0c, 0x38,
  0x9d, 0x8a, 0x90, 0x3c, 0x73, 0xeb, 0x1c, 0xbe, 0x83, 0x0d, 0x97, 0x3e,
  0x4e, 0xa5, 0x34, 0xbe, 0x3a, 0xb6, 0x11, 0x3d, 0x0c, 0x83, 0x8b, 0xbe,
  0x08, 0x7f, 0xde, 0xbd, 0x9a, 0x78, 0x53, 0x3b, 0xe6, 0xa7, 0xed, 0xba,
  0x8e, 0xf0, 0xf2, 0x3c, 0x05, 0xe4, 0xd7, 0xbd, 0x8a, 0x3a, 0x94, 0xbe,
  0xdf, 0xf7, 0x5b, 0xbc, 0x0f, 0xb9, 0x02, 0xbe, 0x8d, 0xd7, 0x83, 0x3e,
  0x20, 0xb0, 0x96, 0xbe, 0x1b, 0x7c, 0x6d, 0xbe, 0x3e, 0xc2, 0x98, 0x3d,
  0x16, 0x9d, 0xee, 0x3d, 0x98, 0x00, 0x3e, 0x3d, 0x07, 0x81, 0xeb, 0x3d,
  0x66, 0xcb, 0x11, 0xbd, 0x43, 0x37, 0x69, 0x3d, 0x5e, 0x73, 0x05, 0x3e,
  0x19, 0x34, 0xbd, 0x3d, 0xc2, 0x49, 0x84, 0xbd, 0x78, 0xb0, 0xc2, 0xbc,
  0x17, 0xb7, 0x8f, 0xbc, 0x74, 0xb0, 0x30, 0xbe, 0x9f, 0x97, 0x9b, 0x3e,
  0xab, 0x04, 0x8d, 0xbe, 0x5f, 0x29, 0xd2, 0xbd, 0x9c, 0x95, 0xdd, 0x3d,
  0x9a, 0x3d, 0xc7, 0x3d, 0x16, 0x77, 0x91, 0x3e, 0x54, 0xc1, 0x6b, 0xbe,
  0x6f, 0x13, 0x68, 0x3e, 0x68, 0x71, 0x1a, 0xbe, 0x2f, 0xe7, 0x5f, 0x3e,
  0xc2, 0x3f, 0x56, 0x3e, 0x68, 0x80, 0x8d, 0xbe, 0x01, 0xb0, 0x02, 0x3f,
  0x0f, 0x62, 0x86, 0x3e, 0xd5, 0x68, 0x58, 0x3e, 0xb4, 0x03, 0x29, 0xbe,
  0x91, 0x29, 0x84, 0x3d, 0xd9, 0xac, 0xef, 0xbc, 0xd4, 0xaa, 0xa1, 0xbc,
  0x0e, 0xf2, 0x8a, 0xbd, 0x54, 0x98, 0x25, 0x3e, 0xa9, 0xc1, 0xd1, 0xbe,
  0x98, 0x65, 0x2a, 0x3e, 0x22, 0x69, 0xbb, 0xbe, 0x7b, 0x23, 0x8d, 0xbd,
  0xbf, 0xcf, 0x1f, 0x3d, 0x00, 0xba, 0x2d, 0x3d, 0x88, 0x0f, 0xf7, 0x3d,
  0x74, 0x30, 0x91, 0xbd, 0x02, 0x4d, 0xae, 0xbe, 0xd6, 0x7d, 0x1c, 0x3e,
  0x0c, 0x24, 0x49, 0xbe, 0x1e, 0xd2, 0xad, 0x3e, 0x37, 0xd7, 0xb4, 0xbd,
  0xfc, 0xaf, 0x81, 0xbe, 0x07, 0x03, 0x5d, 0x3e, 0x70, 0xaf, 0x31, 0xbe,
  0x80, 0x72, 0x4e, 0xbe, 0x3d, 0x53, 0xdb, 0xbe, 0xb7, 0x77, 0x68, 0x3e,
  0x76, 0x17, 0xca, 0x3e, 0xcc, 0x59, 0x80, 0x3c, 0x17, 0x8b, 0x28, 0x3b,
  0x9c, 0xe2, 0xfb, 0xbd, 0xd1, 0x07, 0xf5, 0xbd, 0xa7, 0x8c, 0x84, 0xbe,
  0xb8, 0x53, 0x65, 0xb9, 0x67, 0xa0, 0x76, 0x3d, 0x58, 0xbd, 0x1e, 0x3d,
  0xf0, 0xd8, 0x8c, 0x3e, 0xaa, 0x42, 0x7a, 0x3e, 0xb1, 0xad, 0x03, 0x3e,
  0x9d, 0xb8, 0x00, 0xbe, 0xbf, 0xb1, 0x97, 0xbe, 0xc7, 0xdd, 0x88, 0x3e,
  0x34, 0xed, 0x34, 0x3d, 0x57, 0xd0, 0x77, 0x3e, 0x0b, 0x9e, 0xa2, 0x3e,
  0xad, 0x91, 0xba, 0x3e, 0x26, 0xb4, 0x60, 0xbe, 0x67, 0xe7, 0x1f, 0xbe,
  0x0a, 0x66, 0xe6, 0xbb, 0x0a, 0xc2, 0xf2, 0x3d, 0x3a, 0xb4, 0xe0, 0xbc,
  0x2e, 0x55, 0x6a, 0x3e, 0xb1, 0x06, 0x27, 0x3e, 0xa0, 0xb0, 0xb7, 0xbe,
  0xce, 0x23, 0x53, 0xbe, 0x21, 0xaa, 0x4e, 0x3d, 0x19, 0xc4, 0x8f, 0x3c,
  0x78, 0xb2, 0x38, 0xbe, 0xe9, 0x26, 0x83, 0x3d, 0x4c, 0x99, 0xb6, 0x3d,
  0x01, 0xc0, 0xbe, 0xbd, 0x27, 0xf4, 0xf1, 0xbc, 0x24, 0xa0, 0x7f, 0xbd,
  0x35, 0x09, 0x88, 0x3e, 0x85, 0x44, 0x42, 0xbe, 0xfa, 0x34, 0xc3, 0x3b,
  0x42, 0x49, 0x94, 0x3e, 0xd3, 0x50, 0x71, 0x3e, 0xa4, 0xda, 0xc5, 0xbd,
  0x40, 0xad, 0x08, 0x3d, 0x69, 0x5c, 0x8d, 0x3e, 0x1e, 0x02, 0xd3, 0x3d,
  0x9a, 0xaf, 0x03, 0x3f, 0x68, 0x0e, 0x9d, 0xbc, 0x62, 0xb6, 0x5a, 0xbe,
  0x2e, 0xf0, 0xe2, 0x3d, 0x9d, 0xce, 0x97, 0x3d, 0x6f, 0x8a, 0x25, 0xbe,
  0xf7, 0x72, 0x05, 0x3a, 0x97, 0x68, 0x15, 0x3e, 0x09, 0x92, 0x6a, 0xbe,
  0xcf, 0x39, 0x27, 0x3d, 0xca, 0x10, 0x4f, 0xbe, 0xd5, 0xad, 0x87, 0x3c,
  0x9d, 0xe3, 0xa6, 0x3d, 0x12, 0xd5, 0x21, 0xbe, 0x84, 0x74, 0xa0, 0xbd,
  0x9d, 0xed, 0x6f, 0x3d, 0xff, 0x25, 0xb4, 0xbe, 0x4a, 0x55, 0x18, 0x3e,
  0xe4, 0xc3, 0xad, 0x3d, 0x62, 0x36, 0xad, 0xbe, 0x8f, 0x1d, 0xb8, 0xbc,
  0x41, 0x5b, 0x7a, 0x3d, 0xc3, 0x40, 0x9c, 0xbd, 0x3a, 0x59, 0x43, 0x3e,
  0x05, 0xcd, 0x68, 0xbe, 0x6e, 0x76, 0x54, 0xbe, 0x59, 0x88, 0xc1, 0x3e,
  0xfb, 0x80, 0xb4, 0x3d, 0x59, 0x78, 0x6f, 0x3e, 0x48, 0xdd, 0x81, 0xbc,
  0xad, 0x32, 0x40, 0x3d, 0xc2, 0x2e, 0xd7, 0x3d, 0x1c, 0xd6, 0xe8, 0xbd,
  0xbf, 0xbc, 0x30, 0x3e, 0x9c, 0xb2, 0x45, 0x3e, 0xdd, 0x41, 0x08, 0x3d,
  0x84, 0x2c, 0xc9, 0xbd, 0x01, 0x04, 0x2e, 0x3e, 0x5e, 0x4a, 0x8f, 0x3c,
  0x7c, 0x89, 0x1d, 0xbe, 0x92, 0x37, 0x40, 0xbd, 0xd4, 0x29, 0x68, 0x3e,
  0x15, 0xe1, 0x8b, 0xbd, 0x14, 0x4a, 0x8d, 0xbe, 0xd8, 0xd4, 0x36, 0x3c,
  0x3e, 0x78, 0x2c, 0x3e, 0x0d, 0xa6, 0x3a, 0x3e, 0xd9, 0x22, 0x4e, 0x3e,
  0x33, 0xf0, 0x1c, 0x3e, 0x38, 0xca, 0x8f, 0x3c, 0xaa, 0xd0, 0x97, 0x3e,
  0xd1, 0xb7, 0x9e, 0xbd, 0x40, 0x03, 0x63, 0xbc, 0xb9, 0x99, 0x99, 0x3e,
  0xa1, 0xc9, 0x1a, 0xbe, 0x84, 0x5f, 0xdc, 0x3e, 0x50, 0xa1, 0x74, 0xbd,
  0x55, 0xc8, 0xc3, 0xbd, 0xce, 0x10, 0x27, 0xbe, 0x3a, 0x02, 0x30, 0xbe,
  0x4f, 0x2f, 0x8b, 0x3d, 0x8d, 0x26, 0xd3, 0x3d, 0xd9, 0x8b, 0xc0, 0xbd,
  0xdb, 0x4b, 0x7d, 0xbe, 0x14, 0xf2, 0x0c, 0xbd, 0x7a, 0x7f, 0x80, 0xbc,
  0x8d, 0xd1, 0xa0, 0x3b, 0x4c, 0x62, 0x90, 0x3e, 0xc5, 0x1a, 0x34, 0x3e,
  0x7c, 0x26, 0xd7, 0x3c, 0xa1, 0x63, 0x34, 0xbd, 0x2f, 0x05, 0x55, 0x3e,
  0x68, 0xf7, 0xaf, 0xbd, 0x76, 0xfb, 0xec, 0x3d, 0x35, 0x44, 0x4c, 0xbc,
  0x76, 0x42, 0xdf, 0xbc, 0x7e, 0x1e, 0x3b, 0x3b, 0xb7, 0x01, 0xa6, 0x3e,
  0x05, 0xea, 0x01, 0xbe, 0xbd, 0x27, 0x5c, 0x3c, 0xb9, 0x73, 0x92, 0x3a,
  0x56, 0xfc, 0xca, 0x3c, 0x42, 0x51, 0x52, 0xbe, 0xb4, 0x70, 0x8a, 0xbe,
  0x9e, 0x9f, 0x83, 0x3e, 0x8d, 0x65, 0x70, 0x3e, 0x20, 0x12, 0x7c, 0xbe,
  0xc5, 0x67, 0x37, 0x3c, 0x40, 0x31, 0xef, 0xbd, 0xb7, 0x4c, 0x6e, 0x3e,
  0xc7, 0x28, 0x3c, 0x3e, 0x97, 0xac, 0x17, 0xbe, 0x3e, 0xfa, 0xdf, 0xbd,
  0x83, 0x4a, 0x44, 0xbe, 0x71, 0x49, 0xe8, 0xbd, 0xc6, 0x4a, 0x85, 0xbe,
  0x37, 0x5f, 0x09, 0x3e, 0x7d, 0x99, 0x80, 0x3a, 0x0c, 0xe4, 0x9a, 0xbc,
  0x31, 0x41, 0x20, 0xbe, 0x8f, 0x60, 0xa0, 0x3e, 0xd9, 0x96, 0x46, 0x3c,
  0x28, 0xee, 0x4f, 0xbd, 0x1d, 0xad, 0x84, 0xbc, 0x17, 0xfc, 0x90, 0x3e,
  0x9d, 0x6b, 0x7f, 0x3e, 0xb8, 0xb6, 0xb1, 0x3e, 0x2e, 0x4e, 0xf4, 0xbd,
  0x1d, 0xc5, 0x94, 0x3e, 0x13, 0xff, 0xda, 0x3e, 0xe7, 0xf6, 0xeb, 0x3d,
  0x85, 0x65, 0x9e, 0x3d, 0xe9, 0x52, 0xea, 0x3d, 0x29, 0xa8, 0x9a, 0xbc,
  0xde, 0x83, 0xd1, 0xbc, 0xf8, 0xb3, 0x97, 0x3d, 0x89, 0x67, 0xeb, 0xbe,
  0x92, 0xd2, 0xa9, 0xbd, 0xa1, 0x64, 0x4f, 0xbc, 0x2f, 0x6b, 0xce, 0xbb,
  0x16, 0xf3, 0xc9, 0xbb, 0x15, 0x02, 0x88, 0x3c, 0xae, 0x77, 0x62, 0xbe,
  0x39, 0xab, 0x8d, 0x3e, 0x22, 0x82, 0x9c, 0xbc, 0x22, 0x78, 0x9d, 0x3d,
  0x92, 0x08, 0x88, 0xbe, 0x68, 0xdc, 0x95, 0xbe, 0xd2, 0xc3, 0x2c, 0x3e,
  0x5e, 0xd3, 0x8d, 0x3e, 0x9d, 0x65, 0x12, 0xbd, 0x81, 0xd2, 0x83, 0x3e,
  0x3f, 0xe9, 0x05, 0xbe, 0x85, 0x03, 0x2f, 0x3e, 0x36, 0x6c, 0x90, 0xbe,
  0x0d, 0x5c, 0x1f, 0xbe, 0xaf, 0x2d, 0xa8, 0xbe, 0xb9, 0xa1, 0x88, 0x3d,
  0xda, 0xf9, 0x20, 0xbe, 0x37, 0xe9, 0xc7, 0xbd, 0x14, 0x01, 0xa8, 0xbe,
  0x98, 0x2c, 0xb6, 0xbd, 0xfc, 0x0f, 0xa3, 0xbe, 0x78, 0x78, 0xda, 0x3e,
  0x28, 0x86, 0x8b, 0x3e, 0x68, 0x81, 0x01, 0xbe, 0x41, 0xb1, 0xad, 0x3a,
  0x67, 0xd9, 0x38, 0xbe, 0xbf, 0x11, 0xcc, 0xbd, 0xc3, 0x70, 0x88, 0xbc,
  0x27, 0x07, 0xd7, 0xbe, 0xf2, 0x63, 0x80, 0xbe, 0xa4, 0xb5, 0x9f, 0x3e,
  0xec, 0xba, 0x41, 0xbd, 0x39, 0x5b, 0xa6, 0x3e, 0xbc, 0x8e, 0xdc, 0x3d,
  0xa4, 0x21, 0x63, 0x3b, 0x2b, 0x6e, 0x12, 0xbe, 0xd0, 0x0f, 0x46, 0xbe,
  0x98, 0x47, 0x00, 0x3e, 0xe1, 0x6e, 0x67, 0x3e, 0x1a, 0x9a, 0x6e, 0xbc,
  0x18, 0xd5, 0xb8, 0x3d, 0xc6, 0x4e, 0x4c, 0x3b, 0xd9, 0x70, 0xbb, 0x3d,
  0x54, 0x44, 0xac, 0xbd, 0x9d, 0xac, 0x4d, 0x3e, 0x5f, 0x60, 0xf7, 0xbd,
  0x6e, 0x50, 0x74, 0x3e, 0x5d, 0xf8, 0xf2, 0x3d, 0x29, 0x65, 0x97, 0x3d,
  0xa1, 0x7b, 0xa4, 0xbd, 0x82, 0x29, 0x4e, 0xbd, 0x9d, 0xde, 0x19, 0xbc,
  0x85, 0xd8, 0xbb, 0x3b, 0xf1, 0xa5, 0x63, 0xbd, 0xe1, 0x38, 0x03, 0x3e,
  0xc6, 0x52, 0xda, 0x3d, 0x8b, 0x98, 0xb0, 0xbe, 0xa9, 0x73, 0xbc, 0x3e,
  0x38, 0x00, 0x87, 0xbd, 0x85, 0xce, 0x88, 0x3e, 0x96, 0x2c, 0xd9, 0x38,
  0x17, 0xb2, 0xf5, 0xbc, 0x45, 0xe3, 0xda, 0x3c, 0xc8, 0xd4, 0xab, 0x3d,
  0xba, 0x0e, 0xc5, 0x3d, 0xde, 0x15, 0x42, 0x3e, 0xd1, 0xbc, 0x6c, 0x3e,
  0x4e, 0x37, 0x8e, 0xbe, 0x14, 0xe4, 0x57, 0x3e, 0x3c, 0x5a, 0x1a, 0x3e,
  0x1c, 0x9a, 0x27, 0x3e, 0xab, 0xc4, 0x92, 0x3d, 0xf0, 0x6a, 0x9e, 0x3e,
  0x98, 0xae, 0x95, 0xbd, 0xe8, 0x38, 0x81, 0x3d, 0x10, 0x65, 0x47, 0x3e,
  0xba, 0x3d, 0x23, 0x3e, 0xbb, 0x9f, 0x18, 0x3e, 0x18, 0x94, 0xfc, 0xbb,
  0xd8, 0x85, 0x53, 0xbc, 0x59, 0xf0, 0x5e, 0xba, 0xbe, 0xe6, 0x5a, 0x3e,
  0x5a, 0x4f, 0x9b, 0x3e, 0xd8, 0x9f, 0xbc, 0xbd, 0x2d, 0xe8, 0x07, 0xbe,
  0x30, 0xa4, 0xa4, 0x3d, 0xa5, 0x7a, 0xe6, 0xbd, 0x06, 0xeb, 0x45, 0xbd,
  0xf2, 0x65, 0x55, 0x3d, 0xe3, 0x61, 0xde, 0xbd, 0xfa, 0xd3, 0x48, 0x3d,
  0x37, 0xfc, 0x87, 0x3c, 0xb4, 0x72, 0xae, 0xbd, 0xd4, 0x4f, 0xac, 0x3e,
  0xb2, 0x0f, 0x4f, 0xbc, 0x1b, 0xb6, 0xc7, 0x3e, 0x8d, 0xdc, 0x81, 0x3c,
  0x3e, 0xa8, 0x8b, 0x3c, 0xe2, 0xe1, 0xe8, 0x3b, 0x48, 0xcf, 0x23, 0x3e,
  0xb4, 0x59, 0xa0, 0x3e, 0xb7, 0x63, 0x52, 0xbe, 0x4f, 0x64, 0x20, 0xbe,
  0x82, 0xcf, 0x8f, 0x3e, 0xc0, 0x10, 0x07, 0xbd, 0x2d, 0x98, 0xb3, 0x3b,
  0x7e, 0x24, 0x0e, 0xbd, 0xd4, 0x09, 0x73, 0xba, 0x23, 0x41, 0x9f, 0xbe,
  0x3c, 0x72, 0x84, 0x3d, 0xba, 0x6c, 0x6b, 0xbe, 0xd8, 0x15, 0x9c, 0x3c,
  0x92, 0x2d, 0xc7, 0xbd, 0xa3, 0xdd, 0x32, 0xbe, 0xa0, 0x49, 0x93, 0xbc,
  0xbb, 0xaa, 0x29, 0x3c, 0x9e, 0x4f, 0x52, 0xbd, 0xe4, 0xf3, 0x8e, 0x3e,
  0xea, 0x6c, 0xb2, 0xbd, 0x13, 0x62, 0x98, 0x3e, 0x63, 0xaa, 0xa7, 0xbe,
  0x83, 0xb2, 0x37, 0x3e, 0x72, 0x00, 0x26, 0xbc, 0xf8, 0x10, 0x0c, 0x3e,
  0xab, 0xe3, 0x11, 0xbd, 0x81, 0x77, 0xa6, 0x3d, 0xa8, 0x65, 0x6b, 0xbc,
  0x0e, 0x97, 0x84, 0x3e, 0x0e, 0x56, 0x23, 0xbe, 0x17, 0x1b, 0x03, 0x3d,
  0x88, 0x21, 0x81, 0xbd, 0xd0, 0x76, 0x18, 0xbe, 0x6f, 0xd4, 0xd1, 0xb9,
  0xec, 0x95, 0x1b, 0x3e, 0xb8, 0xea, 0x0a, 0xbb, 0xab, 0x64, 0xb8, 0x3c,
  0x8b, 0xc1, 0x99, 0x3c, 0x54, 0x86, 0xbb, 0x3e, 0x47, 0x31, 0x9b, 0xbe,
  0x5d, 0xd0, 0x9d, 0x3e, 0x22, 0x79, 0x92, 0x3e, 0xf7, 0x22, 0xa2, 0x3c,
  0x14, 0x75, 0x7d, 0xbd, 0x9f, 0x1b, 0x38, 0x3c, 0x87, 0x14, 0x7a, 0xbe,
  0x26, 0x6c, 0x54, 0xbd, 0xcc, 0x97, 0x90, 0xbe, 0xc3, 0xf6, 0x38, 0x3d,
  0x59, 0x3d, 0x08, 0x3e, 0xb3, 0x1f, 0xfa, 0xbd, 0x0a, 0xb2, 0x70, 0x3c,
  0xe5, 0x4d, 0x88, 0x3c, 0xe0, 0x4a, 0x4b, 0xbc, 0x17, 0x32, 0x8f, 0x3e,
  0xea, 0xe6, 0x49, 0xbe, 0xad, 0x43, 0x96, 0x3e, 0x65, 0x12, 0xdc, 0xbc,
  0x00, 0xc5, 0xaf, 0x3d, 0x18, 0x82, 0x26, 0xbe, 0x66, 0xe9, 0x6a, 0x3d,
  0x35, 0x1c, 0x12, 0xbe, 0xf5, 0xc8, 0xe6, 0xbd, 0xde, 0x82, 0xc3, 0xbe,
  0x26, 0xa6, 0x05, 0x3d, 0x38, 0x15, 0xb6, 0xbe, 0x97, 0x7b, 0xa5, 0x3e,
  0x5b, 0x0c, 0x26, 0xbe, 0xb2, 0x04, 0x98, 0x3e, 0x47, 0x48, 0x6e, 0x3e,
  0x10, 0x29, 0x4f, 0xbe, 0x77, 0xae, 0x2c, 0x3d, 0x37, 0x81, 0xf6, 0x3d,
  0x33, 0x9b, 0x6f, 0x3e, 0xca, 0x65, 0x00, 0xbe, 0xe0, 0x91, 0xc4, 0x3e,
  0x0e, 0x16, 0x83, 0xbd, 0x83, 0xad, 0x70, 0x3e, 0x8a, 0xee, 0x16, 0xbb,
  0x5a, 0x58, 0xac, 0xbc, 0x6e, 0x4a, 0xba, 0xba, 0xc7, 0x6b, 0xd1, 0xbe,
  0x4b, 0x4f, 0x81, 0x3d, 0x36, 0x72, 0x93, 0xbe, 0x61, 0x67, 0xd1, 0xbe,
  0x21, 0x81, 0x61, 0xbe, 0x0e, 0x7c, 0x18, 0xbe, 0x95, 0xcd, 0x64, 0x3c,
  0x1a, 0x76, 0x72, 0x3b, 0x1b, 0x9e, 0xb7, 0x3b, 0x26, 0x27, 0x7a, 0xbe,
  0x77, 0x81, 0x6d, 0xbe, 0x2a, 0x93, 0xc5, 0x3e, 0x2a, 0x0e, 0x8c, 0x3e,
  0xdc, 0xef, 0xe0, 0x3d, 0x59, 0x1f, 0x6d, 0xbe, 0x21, 0x84, 0xb4, 0xbc,
  0xd5, 0x62, 0xbf, 0x3d, 0x88, 0x0e, 0x77, 0xbd, 0xe5, 0x33, 0x33, 0x3e,
  0xd2, 0x86, 0x0b, 0xbf, 0xee, 0xdc, 0x01, 0xbe, 0x40, 0xc2, 0xa0, 0x3d,
  0x76, 0x3c, 0x43, 0x3e, 0x60, 0xab, 0xc6, 0x3e, 0xcc, 0x31, 0x44, 0x3c,
  0xec, 0x30, 0xb1, 0xbb, 0x33, 0x51, 0x30, 0xbc, 0xb0, 0xbc, 0xa9, 0xbe,
  0xe1, 0x29, 0x4b, 0x3d, 0x36, 0xe9, 0x78, 0xbe, 0x18, 0x2b, 0x8a, 0x3e,
  0x40, 0xe7, 0xe7, 0xbe, 0x02, 0x6d, 0x3b, 0xbe, 0x19, 0x5e, 0xfb, 0xbd,
  0xa9, 0x5f, 0x6b, 0xbd, 0x38, 0x5d, 0xa7, 0x3d, 0x3b, 0x39, 0xbf, 0x3e,
  0xdf, 0xa9, 0x62, 0xbd, 0xe4, 0x95, 0xf8, 0x3c, 0x39, 0xf7, 0x12, 0x3f,
  0xed, 0xff, 0xa9, 0x3e, 0x28, 0x18, 0x72, 0xbc, 0x47, 0x59, 0x6a, 0x3d,
  0x32, 0xa9, 0xdb, 0x3d, 0xf2, 0x89, 0x31, 0x3e, 0x69, 0xc8, 0x6b, 0x3d,
  0x33, 0x86, 0xa0, 0xbe, 0xa6, 0xb3, 0xf8, 0xbd, 0xaf, 0xd6, 0x69, 0x3e,
  0x26, 0x06, 0xb4, 0x3d, 0x35, 0x12, 0x5a, 0xbd, 0x71, 0x9b, 0x5a, 0x3b,
  0xc3, 0x9b, 0x1b, 0x3c, 0x94, 0xca, 0x9f, 0xbb, 0xf6, 0x93, 0xa8, 0x3e,
  0x6a, 0x1e, 0x28, 0x3c, 0x8a, 0x39, 0x23, 0x3d, 0xa0, 0xba, 0xff, 0xff,
  0xa4, 0xba, 0xff, 0xff, 0xa8, 0xba, 0xff, 0xff, 0xac, 0xba, 0xff, 0xff,
  0xb0, 0xba, 0xff, 0xff, 0xb4, 0xba, 0xff, 0xff, 0xb8, 0xba, 0xff, 0xff,
  0xbc, 0xba, 0xff, 0xff, 0xc0, 0xba, 0xff, 0xff, 0xc4, 0xba, 0xff, 0xff,
  0xc8, 0xba, 0xff, 0xff, 0xcc, 0xba, 0xff, 0xff, 0xd0, 0xba, 0xff, 0xff,
  0xd4, 0xba, 0xff, 0xff, 0xd8, 0xba, 0xff, 0xff, 0xdc, 0xba, 0xff, 0xff,
  0xe0, 0xba, 0xff, 0xff, 0xe4, 0xba, 0xff, 0xff, 0xe8, 0xba, 0xff, 0xff,
  0xec, 0xba, 0xff, 0xff, 0xf0, 0xba, 0xff, 0xff, 0xf4, 0xba, 0xff, 0xff,
  0xf8, 0xba, 0xff, 0xff, 0xfc, 0xba, 0xff, 0xff, 0x00, 0xbb, 0xff, 0xff,
  0x04, 0xbb, 0xff, 0xff, 0x08, 0xbb, 0xff, 0xff, 0x0c, 0xbb, 0xff, 0xff,
  0x10, 0xbb, 0xff, 0xff, 0x14, 0xbb, 0xff, 0xff, 0x18, 0xbb, 0xff, 0xff,
  0x1c, 0xbb, 0xff, 0xff, 0x20, 0xbb, 0xff, 0xff, 0x24, 0xbb, 0xff, 0xff,
  0x28, 0xbb, 0xff, 0xff, 0x2c, 0xbb, 0xff, 0xff, 0x30, 0xbb, 0xff, 0xff,
  0x34, 0xbb, 0xff, 0xff, 0x38, 0xbb, 0xff, 0xff, 0x3c, 0xbb, 0xff, 0xff,
  0x40, 0xbb, 0xff, 0xff, 0x44, 0xbb, 0xff, 0xff, 0x48, 0xbb, 0xff, 0xff,
  0x4c, 0xbb, 0xff, 0xff, 0x50, 0xbb, 0xff, 0xff, 0x54, 0xbb, 0xff, 0xff,
  0x58, 0xbb, 0xff, 0xff, 0x5c, 0xbb, 0xff, 0xff, 0x76, 0xce, 0xff, 0xff,
  0x04, 0x00, 0x00, 0x00, 0x08, 0x00, 0x00, 0x00, 0xff, 0xff, 0xff, 0xff,
  0x10, 0x00, 0x00, 0x00, 0x74, 0xbb, 0xff, 0xff, 0x78, 0xbb, 0xff, 0xff,
  0x92, 0xce, 0xff, 0xff, 0x04, 0x00, 0x00, 0x00, 0x04, 0x00, 0x00, 0x00,
  0x01, 0x00, 0x00, 0x00, 0xa2, 0xce, 0xff, 0xff, 0x04, 0x00, 0x00, 0x00,
  0x0c, 0x00, 0x00, 0x00, 0x01, 0x00, 0x00, 0x00, 0x00, 0x00, 0x00, 0x00,
  0x02, 0x00, 0x00, 0x00, 0xba, 0xce, 0xff, 0xff, 0x04, 0x00, 0x00, 0x00,
  0x04, 0x00, 0x00, 0x00, 0x00, 0x00, 0x00, 0x00, 0xca, 0xce, 0xff, 0xff,
  0x04, 0x00, 0x00, 0x00, 0x04, 0x00, 0x00, 0x00, 0x10, 0x00, 0x00, 0x00,
  0xda, 0xce, 0xff, 0xff, 0x04, 0x00, 0x00, 0x00, 0x08, 0x00, 0x00, 0x00,
  0xff, 0xff, 0xff, 0xff, 0x0c, 0x00, 0x00, 0x00, 0xee, 0xce, 0xff, 0xff,
  0x04, 0x00, 0x00, 0x00, 0x04, 0x00, 0x00, 0x00, 0x0c, 0x00, 0x00, 0x00,
  0xfe, 0xce, 0xff, 0xff, 0x04, 0x00, 0x00, 0x00, 0x04, 0x00, 0x00, 0x00,
  0x28, 0x00, 0x00, 0x00, 0x0e, 0xcf, 0xff, 0xff, 0x04, 0x00, 0x00, 0x00,
  0x14, 0x00, 0x00, 0x00, 0xf4, 0xf5, 0x07, 0x3b, 0x60, 0xa8, 0x20, 0xbe,
  0x05, 0xa9, 0x5a, 0x3d, 0x0f, 0x67, 0x6d, 0x3e, 0x3f, 0x8c, 0x1b, 0xbe,
  0x2e, 0xcf, 0xff, 0xff, 0x04, 0x00, 0x00, 0x00, 0x20, 0x00, 0x00, 0x00,
  0xd6, 0xe5, 0x9b, 0x3e, 0x21, 0x8d, 0x97, 0x3e, 0x24, 0x9a, 0x5c, 0x3e,
  0x81, 0xa3, 0x56, 0x3e, 0x65, 0xd3, 0x7c, 0x3e, 0x07, 0x60, 0x20, 0x3e,
  0xb1, 0x4b, 0x94, 0x3b, 0xbf, 0x18, 0x0c, 0xbc, 0x5a, 0xcf, 0xff, 0xff,
  0x04, 0x00, 0x00, 0x00, 0x80, 0x01, 0x00, 0x00, 0x3e, 0xcb, 0x26, 0xbf,
  0x6f, 0x1a, 0x55, 0x3e, 0x04, 0x9f, 0x87, 0x3e, 0xd4, 0xe5, 0x83, 0x3f,
  0x00, 0xfb, 0x70, 0xbf, 0x12, 0x2b, 0x39, 0x3f, 0xd9, 0x36, 0x94, 0x3e,
  0xb7, 0xa6, 0x41, 0xbe, 0xc8, 0x0f, 0xf3, 0x3b, 0x89, 0xa2, 0x2d, 0xbe,
  0xba, 0xff, 0x63, 0x3f, 0x72, 0x7f, 0x85, 0xbb, 0x0d, 0xdb, 0x73, 0x3d,
  0x45, 0x77, 0x4f, 0xbf, 0x9d, 0x2a, 0x84, 0x3e, 0xcb, 0xdf, 0x0d, 0xbf,
  0xef, 0x64, 0x0c, 0x3f, 0x96, 0xa4, 0x6f, 0xbe, 0xfe, 0xa8, 0xe0, 0x3e,
  0xc5, 0x91, 0x12, 0x3f, 0xff, 0xd3, 0x23, 0xbe, 0xaf, 0x8d, 0x9c, 0x3e,
  0xdb, 0x24, 0xe7, 0x3e, 0x43, 0x0d, 0xe1, 0xbd, 0xee, 0xe1, 0xb0, 0xbe,
  0xa9, 0x2f, 0xa3, 0xbe, 0x9f, 0xe7, 0x70, 0xbf, 0xc0, 0x01, 0x0d, 0xbe,
  0x57, 0x72, 0x93, 0x3e, 0x22, 0xb9, 0xe8, 0x3d, 0x0a, 0x2b, 0x8f, 0xbf,
  0x25, 0xba, 0x8e, 0x3d, 0x97, 0xde, 0x48, 0x3f, 0xf0, 0x60, 0xb5, 0xbe,
  0x81, 0x3d, 0xbe, 0xbe, 0x4b, 0xd1, 0x15, 0xbf, 0xd1, 0xa6, 0x81, 0x3e,
  0xeb, 0x8a, 0x11, 0x3e, 0xf2, 0xf1, 0xac, 0xbd, 0xd8, 0xb2, 0x48, 0xbf,
  0xda, 0x03, 0x80, 0x3f, 0x96, 0x99, 0x6c, 0x3e, 0xe7, 0x72, 0x54, 0x3e,
  0xd3, 0xda, 0x22, 0x3f, 0x5b, 0xb1, 0x1b, 0x3e, 0x0d, 0xff, 0x08, 0x3e,
  0x54, 0xb5, 0x1b, 0x3f, 0x9f, 0x46, 0xc8, 0x3e, 0x69, 0x0f, 0x10, 0xbf,
  0x66, 0x51, 0xc5, 0x3e, 0x8c, 0x54, 0x05, 0x3f, 0x32, 0xfc, 0x0f, 0x3f,
  0x29, 0x46, 0x99, 0xbf, 0x20, 0x53, 0xaf, 0x3e, 0x0d, 0x2b, 0x7c, 0xbe,
  0x4f, 0x14, 0x8f, 0xbf, 0x3c, 0xc2, 0xb1, 0x3c, 0x35, 0x42, 0x17, 0xbf,
  0x07, 0x8c, 0x94, 0x3e, 0x53, 0x72, 0xd2, 0x3d, 0x39, 0x17, 0x2b, 0xbe,
  0x93, 0xdf, 0x4e, 0x3e, 0x88, 0x23, 0x3e, 0xbf, 0x51, 0xc5, 0xfd, 0xbe,
  0x2c, 0x46, 0x29, 0xbe, 0x19, 0x72, 0xc1, 0x3d, 0x9e, 0x06, 0x83, 0xbf,
  0x6d, 0x04, 0x06, 0xbf, 0xd6, 0x65, 0x2c, 0x3f, 0x3a, 0x64, 0x92, 0xbd,
  0x70, 0x2d, 0xd1, 0xbd, 0x2d, 0xe8, 0x85, 0xbe, 0x79, 0x64, 0x64, 0xbc,
  0x13, 0x43, 0x06, 0xbd, 0xf9, 0x99, 0x4f, 0xbf, 0x96, 0x76, 0xae, 0x3e,
  0xbe, 0x03, 0x82, 0x3e, 0xcf, 0xda, 0xdf, 0xbe, 0xab, 0x17, 0xda, 0xbe,
  0x86, 0xbe, 0x0c, 0x3f, 0x28, 0xbd, 0xfc, 0x3e, 0xda, 0xb6, 0xfd, 0xbe,
  0x17, 0xe1, 0x24, 0xbf, 0x63, 0x8c, 0xae, 0xbe, 0x18, 0x47, 0xfc, 0xbe,
  0x3f, 0xbd, 0x6d, 0x3e, 0x9a, 0xbf, 0x1d, 0x3f, 0x78, 0x9e, 0x8c, 0x3f,
  0x82, 0xc7, 0x0a, 0xbf, 0x32, 0x13, 0x24, 0x3f, 0x0d, 0xe7, 0xf8, 0x3e,
  0xee, 0x48, 0x93, 0xbd, 0x7f, 0xb6, 0x92, 0xbe, 0x30, 0x93, 0x70, 0xbe,
  0xee, 0x91, 0x08, 0xbd, 0x21, 0x9f, 0xaf, 0xbe, 0xe6, 0xd0, 0xff, 0xff,
  0x04, 0x00, 0x00, 0x00, 0xa0, 0x00, 0x00, 0x00, 0x60, 0xa0, 0x95, 0xbf,
  0x4c, 0x60, 0xf3, 0x3e, 0x0b, 0xd0, 0x35, 0x3f, 0x4e, 0x78, 0xda, 0x3d,
  0xd3, 0xf3, 0x81, 0xbf, 0x7e, 0xd0, 0x9f, 0x3e, 0xe7, 0x23, 0x1c, 0x3f,
  0x32, 0x15, 0x75, 0xbf, 0x9e, 0x98, 0x50, 0x3f, 0x83, 0xc3, 0x7f, 0xbe,
  0x54, 0xc5, 0x59, 0xbf, 0x2e, 0xfe, 0x3a, 0xbf, 0xb5, 0xe9, 0x02, 0x3e,
  0x60, 0x00, 0xa5, 0xbf, 0xd0, 0x97, 0xb3, 0xbf, 0xaa, 0xbd, 0x58, 0x3f,
  0x38, 0xe4, 0x2d, 0x3f, 0xe7, 0x0a, 0x34, 0xbf, 0x5d, 0x17, 0x74, 0x3e,
  0x4a, 0x55, 0x19, 0xbf, 0x1a, 0x49, 0x19, 0x3d, 0x03, 0xa7, 0x33, 0x3e,
  0x7f, 0xf4, 0x9d, 0xbe, 0xd2, 0x0d, 0x24, 0x3f, 0x66, 0xe1, 0xff, 0x3d,
  0xf1, 0x85, 0x78, 0x3f, 0x6f, 0xbb, 0x0f, 0x3e, 0xd5, 0x62, 0x2c, 0x3f,
  0x30, 0xa0, 0x7f, 0xbf, 0x6b, 0x50, 0x58, 0xbf, 0x6c, 0x5b, 0xea, 0xbe,
  0x26, 0x58, 0x42, 0xbf, 0x95, 0x3b, 0xb9, 0x3e, 0xd0, 0x71, 0xa8, 0xbf,
  0x8c, 0x4b, 0x12, 0x3f, 0xb0, 0xf4, 0x96, 0xbf, 0x07, 0x5e, 0x0e, 0x3d,
  0x7d, 0xfe, 0x33, 0x3f, 0x31, 0x8c, 0xcc, 0xbd, 0x56, 0x6b, 0x05, 0xbc,
  0x92, 0xd1, 0xff, 0xff, 0x04, 0x00, 0x00, 0x00, 0x0c, 0x00, 0x00, 0x00,
  0xff, 0xff, 0xff, 0xff, 0x00, 0x00, 0x00, 0x00, 0x00, 0x00, 0x00, 0x00,
  0xaa, 0xd1, 0xff, 0xff, 0x04, 0x00, 0x00, 0x00, 0x0c, 0x00, 0x00, 0x00,
  0x00, 0x00, 0x00, 0x00, 0x00, 0x00, 0x00, 0x00, 0x0c, 0x00, 0x00, 0x00,
  0xc2, 0xd1, 0xff, 0xff, 0x04, 0x00, 0x00, 0x00, 0x0c, 0x00, 0x00, 0x00,
  0x01, 0x00, 0x00, 0x00, 0x01, 0x00, 0x00, 0x00, 0x01, 0x00, 0x00, 0x00,
  0xc4, 0xbe, 0xff, 0xff, 0xc8, 0xbe, 0xff, 0xff, 0x0f, 0x00, 0x00, 0x00,
  0x4d, 0x4c, 0x49, 0x52, 0x20, 0x43, 0x6f, 0x6e, 0x76, 0x65, 0x72, 0x74,
  0x65, 0x64, 0x2e, 0x00, 0x05, 0x00, 0x00, 0x00, 0x20, 0x29, 0x00, 0x00,
  0x5c, 0x25, 0x00, 0x00, 0xcc, 0x14, 0x00, 0x00, 0x10, 0x11, 0x00, 0x00,
  0x04, 0x00, 0x00, 0x00, 0x02, 0xd7, 0xff, 0xff, 0x14, 0x00, 0x00, 0x00,
  0x38, 0x00, 0x00, 0x00, 0x84, 0x04, 0x00, 0x00, 0x9c, 0x04, 0x00, 0x00,
  0xb4, 0x04, 0x00, 0x00, 0x20, 0x00, 0x00, 0x00, 0x73, 0x65, 0x71, 0x75,
  0x65, 0x6e, 0x74, 0x69, 0x61, 0x6c, 0x5f, 0x31, 0x2f, 0x6c, 0x73, 0x74,
  0x6d, 0x5f, 0x31, 0x5f, 0x32, 0x2f, 0x77, 0x68, 0x69, 0x6c, 0x65, 0x5f,
  0x62, 0x6f, 0x64, 0x79, 0x00, 0x00, 0x00, 0x00, 0x12, 0x00, 0x00, 0x00,
  0x1c, 0x04, 0x00, 0x00, 0xe4, 0x03, 0x00, 0x00, 0xb0, 0x03, 0x00, 0x00,
  0x7c, 0x03, 0x00, 0x00, 0x44, 0x03, 0x00, 0x00, 0x10, 0x03, 0x00, 0x00,
  0xdc, 0x02, 0x00, 0x00, 0x98, 0x02, 0x00, 0x00, 0x74, 0x02, 0x00, 0x00,
  0x50, 0x02, 0x00, 0x00, 0x1c, 0x02, 0x00, 0x00, 0xf8, 0x01, 0x00, 0x00,
  0xd4, 0x01, 0x00, 0x00, 0xa0, 0x01, 0x00, 0x00, 0x6c, 0x01, 0x00, 0x00,
  0x48, 0x01, 0x00, 0x00, 0x14, 0x01, 0x00, 0x00, 0x04, 0x00, 0x00, 0x00,
  0xec, 0xd1, 0xff, 0xff, 0x10, 0x00, 0x00, 0x00, 0xec, 0x00, 0x00, 0x00,
  0xf0, 0x00, 0x00, 0x00, 0x12, 0x00, 0x00, 0x00, 0xdc, 0x00, 0x00, 0x00,
  0x11, 0x54, 0x65, 0x6e, 0x73, 0x6f, 0x72, 0x4c, 0x69, 0x73, 0x74, 0x53,
  0x65, 0x74, 0x49, 0x74, 0x65, 0x6d, 0x00, 0xbf, 0x12, 0x11, 0x54, 0x65,
  0x6e, 0x73, 0x6f, 0x72, 0x4c, 0x69, 0x73, 0x74, 0x53, 0x65, 0x74, 0x49,
  0x74, 0x65, 0x6d, 0x1a, 0x00, 0x1a, 0x00, 0x1a, 0x00, 0x2a, 0x13, 0x0a,
  0x0d, 0x65, 0x6c, 0x65, 0x6d, 0x65, 0x6e, 0x74, 0x5f, 0x64, 0x74, 0x79,
  0x70, 0x65, 0x12, 0x02, 0x30, 0x01, 0x2a, 0x23, 0x0a, 0x1d, 0x72, 0x65,
  0x73, 0x69, 0x7a, 0x65, 0x5f, 0x69, 0x66, 0x5f, 0x69, 0x6e, 0x64, 0x65,
  0x78, 0x5f, 0x6f, 0x75, 0x74, 0x5f, 0x6f, 0x66, 0x5f, 0x62, 0x6f, 0x75,
  0x6e, 0x64, 0x73, 0x12, 0x02, 0x28, 0x00, 0x32, 0x6a, 0x0a, 0x40, 0x73,
  0x65, 0x71, 0x75, 0x65, 0x6e, 0x74, 0x69, 0x61, 0x6c, 0x5f, 0x31, 0x2f,
  0x6c, 0x73, 0x74, 0x6d, 0x5f, 0x31, 0x5f, 0x32, 0x2f, 0x77, 0x68, 0x69,
  0x6c, 0x65, 0x2f, 0x54, 0x65, 0x6e, 0x73, 0x6f, 0x72, 0x41, 0x72, 0x72,
  0x61, 0x79, 0x56, 0x32, 0x57, 0x72, 0x69, 0x74, 0x65, 0x2f, 0x54, 0x65,
  0x6e, 0x73, 0x6f, 0x72, 0x4c, 0x69, 0x73, 0x74, 0x53, 0x65, 0x74, 0x49,
  0x74, 0x65, 0x6d, 0x12, 0x26, 0x73, 0x65, 0x71, 0x75, 0x65, 0x6e, 0x74,
  0x69, 0x61, 0x6c, 0x5f, 0x31, 0x5f, 0x6c, 0x73, 0x74, 0x6d, 0x5f, 0x31,
  0x5f, 0x32, 0x5f, 0x77, 0x68, 0x69, 0x6c, 0x65, 0x5f, 0x62, 0x6f, 0x64,
  0x79, 0x5f, 0x31, 0x36, 0x34, 0x33, 0x32, 0x00, 0x02, 0xd4, 0xc2, 0x14,
  0x14, 0x04, 0x28, 0x01, 0x01, 0x00, 0x00, 0x00, 0x1f, 0x00, 0x00, 0x00,
  0x03, 0x00, 0x00, 0x00, 0x02, 0x00, 0x00, 0x00, 0x06, 0x00, 0x00, 0x00,
  0x1e, 0x00, 0x00, 0x00, 0x52, 0xd3, 0xff, 0xff, 0x14, 0x00, 0x00, 0x00,
  0x00, 0x00, 0x00, 0x15, 0x10, 0x00, 0x00, 0x00, 0x14, 0x00, 0x00, 0x00,
  0x10, 0x00, 0x00, 0x00, 0xa8, 0xc0, 0xff, 0xff, 0x01, 0x00, 0x00, 0x00,
  0x1e, 0x00, 0x00, 0x00, 0x02, 0x00, 0x00, 0x00, 0x19, 0x00, 0x00, 0x00,
  0x1d, 0x00, 0x00, 0x00, 0xb2, 0xd3, 0xff, 0xff, 0x0c, 0x00, 0x00, 0x00,
  0x10, 0x00, 0x00, 0x00, 0x11, 0x00, 0x00, 0x00, 0x01, 0x00, 0x00, 0x00,
  0x1d, 0x00, 0x00, 0x00, 0x01, 0x00, 0x00, 0x00, 0x1c, 0x00, 0x00, 0x00,
  0xa2, 0xd3, 0xff, 0xff, 0x14, 0x00, 0x00, 0x00, 0x00, 0x00, 0x00, 0x0b,
  0x10, 0x00, 0x00, 0x00, 0x14, 0x00, 0x00, 0x00, 0x0c, 0x00, 0x00, 0x00,
  0xf8, 0xc0, 0xff, 0xff, 0x01, 0x00, 0x00, 0x00, 0x1c, 0x00, 0x00, 0x00,
  0x02, 0x00, 0x00, 0x00, 0x18, 0x00, 0x00, 0x00, 0x1b, 0x00, 0x00, 0x00,
  0xd2, 0xd3, 0xff, 0xff, 0x14, 0x00, 0x00, 0x00, 0x00, 0x00, 0x00, 0x15,
  0x10, 0x00, 0x00, 0x00, 0x14, 0x00, 0x00, 0x00, 0x10, 0x00, 0x00, 0x00,
  0x28, 0xc1, 0xff, 0xff, 0x01, 0x00, 0x00, 0x00, 0x1b, 0x00, 0x00, 0x00,
  0x02, 0x00, 0x00, 0x00, 0x16, 0x00, 0x00, 0x00, 0x1a, 0x00, 0x00, 0x00,
  0x32, 0xd4, 0xff, 0xff, 0x0c, 0x00, 0x00, 0x00, 0x10, 0x00, 0x00, 0x00,
  0x11, 0x00, 0x00, 0x00, 0x01, 0x00, 0x00, 0x00, 0x1a, 0x00, 0x00, 0x00,
  0x01, 0x00, 0x00, 0x00, 0x14, 0x00, 0x00, 0x00, 0x52, 0xd4, 0xff, 0xff,
  0x0c, 0x00, 0x00, 0x00, 0x10, 0x00, 0x00, 0x00, 0x0f, 0x00, 0x00, 0x00,
  0x01, 0x00, 0x00, 0x00, 0x19, 0x00, 0x00, 0x00, 0x01, 0x00, 0x00, 0x00,
  0x15, 0x00, 0x00, 0x00, 0x42, 0xd4, 0xff, 0xff, 0x14, 0x00, 0x00, 0x00,
  0x00, 0x00, 0x00, 0x15, 0x10, 0x00, 0x00, 0x00, 0x14, 0x00, 0x00, 0x00,
  0x10, 0x00, 0x00, 0x00, 0x98, 0xc1, 0xff, 0xff, 0x01, 0x00, 0x00, 0x00,
  0x18, 0x00, 0x00, 0x00, 0x02, 0x00, 0x00, 0x00, 0x17, 0x00, 0x00, 0x00,
  0x04, 0x00, 0x00, 0x00, 0xa2, 0xd4, 0xff, 0xff, 0x0c, 0x00, 0x00, 0x00,
  0x10, 0x00, 0x00, 0x00, 0x0f, 0x00, 0x00, 0x00, 0x01, 0x00, 0x00, 0x00,
  0x17, 0x00, 0x00, 0x00, 0x01, 0x00, 0x00, 0x00, 0x13, 0x00, 0x00, 0x00,
  0xc2, 0xd4, 0xff, 0xff, 0x0c, 0x00, 0x00, 0x00, 0x10, 0x00, 0x00, 0x00,
  0x0f, 0x00, 0x00, 0x00, 0x01, 0x00, 0x00, 0x00, 0x16, 0x00, 0x00, 0x00,
  0x01, 0x00, 0x00, 0x00, 0x12, 0x00, 0x00, 0x00, 0xb2, 0xd4, 0xff, 0xff,
  0x14, 0x00, 0x00, 0x00, 0x00, 0x00, 0x00, 0x23, 0x14, 0x00, 0x00, 0x00,
  0x24, 0x00, 0x00, 0x00, 0x0e, 0x00, 0x00, 0x00, 0x1e, 0xd5, 0xff, 0xff,
  0x04, 0x00, 0x00, 0x00, 0x04, 0x00, 0x00, 0x00, 0x12, 0x00, 0x00, 0x00,
  0x13, 0x00, 0x00, 0x00, 0x14, 0x00, 0x00, 0x00, 0x15, 0x00, 0x00, 0x00,
  0x02, 0x00, 0x00, 0x00, 0x07, 0x00, 0x00, 0x00, 0x11, 0x00, 0x00, 0x00,
  0xf2, 0xd4, 0xff, 0xff, 0x14, 0x00, 0x00, 0x00, 0x00, 0x00, 0x00, 0x0b,
  0x10, 0x00, 0x00, 0x00, 0x14, 0x00, 0x00, 0x00, 0x0c, 0x00, 0x00, 0x00,
  0x48, 0xc2, 0xff, 0xff, 0x01, 0x00, 0x00, 0x00, 0x11, 0x00, 0x00, 0x00,
  0x02, 0x00, 0x00, 0x00, 0x10, 0x00, 0x00, 0x00, 0x0a, 0x00, 0x00, 0x00,
  0x22, 0xd5, 0xff, 0xff, 0x14, 0x00, 0x00, 0x00, 0x00, 0x00, 0x00, 0x0b,
  0x10, 0x00, 0x00, 0x00, 0x14, 0x00, 0x00, 0x00, 0x0c, 0x00, 0x00, 0x00,
  0x78, 0xc2, 0xff, 0xff, 0x01, 0x00, 0x00, 0x00, 0x10, 0x00, 0x00, 0x00,
  0x02, 0x00, 0x00, 0x00, 0x0f, 0x00, 0x00, 0x00, 0x0c, 0x00, 0x00, 0x00,
  0x52, 0xd5, 0xff, 0xff, 0x14, 0x00, 0x00, 0x00, 0x00, 0x00, 0x00, 0x08,
  0x10, 0x00, 0x00, 0x00, 0x14, 0x00, 0x00, 0x00, 0x08, 0x00, 0x00, 0x00,
  0xa8, 0xc2, 0xff, 0xff, 0x01, 0x00, 0x00, 0x00, 0x0f, 0x00, 0x00, 0x00,
  0x03, 0x00, 0x00, 0x00, 0x0e, 0x00, 0x00, 0x00, 0x08, 0x00, 0x00, 0x00,
  0xff, 0xff, 0xff, 0xff, 0x86, 0xd5, 0xff, 0xff, 0x14, 0x00, 0x00, 0x00,
  0x00, 0x00, 0x00, 0x17, 0x10, 0x00, 0x00, 0x00, 0x14, 0x00, 0x00, 0x00,
  0x0d, 0x00, 0x00, 0x00, 0xdc, 0xc2, 0xff, 0xff, 0x01, 0x00, 0x00, 0x00,
  0x0e, 0x00, 0x00, 0x00, 0x02, 0x00, 0x00, 0x00, 0x05, 0x00, 0x00, 0x00,
  0x01, 0x00, 0x00, 0x00, 0xb6, 0xd5, 0xff, 0xff, 0x14, 0x00, 0x00, 0x00,
  0x00, 0x00, 0x00, 0x0b, 0x10, 0x00, 0x00, 0x00, 0x14, 0x00, 0x00, 0x00,
  0x0c, 0x00, 0x00, 0x00, 0x0c, 0xc3, 0xff, 0xff, 0x01, 0x00, 0x00, 0x00,
  0x0d, 0x00, 0x00, 0x00, 0x02, 0x00, 0x00, 0x00, 0x00, 0x00, 0x00, 0x00,
  0x07, 0x00, 0x00, 0x00, 0xe6, 0xd5, 0xff, 0xff, 0x14, 0x00, 0x00, 0x00,
  0x00, 0x00, 0x00, 0x08, 0x10, 0x00, 0x00, 0x00, 0x14, 0x00, 0x00, 0x00,
  0x08, 0x00, 0x00, 0x00, 0x3c, 0xc3, 0xff, 0xff, 0x01, 0x00, 0x00, 0x00,
  0x0c, 0x00, 0x00, 0x00, 0x03, 0x00, 0x00, 0x00, 0x03, 0x00, 0x00, 0x00,
  0x09, 0x00, 0x00, 0x00, 0xff, 0xff, 0xff, 0xff, 0x1a, 0xd6, 0xff, 0xff,
  0x14, 0x00, 0x00, 0x00, 0x00, 0x00, 0x00, 0x0b, 0x10, 0x00, 0x00, 0x00,
  0x14, 0x00, 0x00, 0x00, 0x0c, 0x00, 0x00, 0x00, 0x70, 0xc3, 0xff, 0xff,
  0x01, 0x00, 0x00, 0x00, 0x0b, 0x00, 0x00, 0x00, 0x02, 0x00, 0x00, 0x00,
  0x01, 0x00, 0x00, 0x00, 0x07, 0x00, 0x00, 0x00, 0x06, 0x00, 0x00, 0x00,
  0x0d, 0x00, 0x00, 0x00, 0x0b, 0x00, 0x00, 0x00, 0x1f, 0x00, 0x00, 0x00,
  0x1e, 0x00, 0x00, 0x00, 0x1c, 0x00, 0x00, 0x00, 0x05, 0x00, 0x00, 0x00,
  0x06, 0x00, 0x00, 0x00, 0x00, 0x00, 0x00, 0x00, 0x01, 0x00, 0x00, 0x00,
  0x02, 0x00, 0x00, 0x00, 0x03, 0x00, 0x00, 0x00, 0x04, 0x00, 0x00, 0x00,
  0x05, 0x00, 0x00, 0x00, 0x20, 0x00, 0x00, 0x00, 0x0c, 0x0c, 0x00, 0x00,
  0xd8, 0x0b, 0x00, 0x00, 0x80, 0x0b, 0x00, 0x00, 0x38, 0x0b, 0x00, 0x00,
  0xf0, 0x0a, 0x00, 0x00, 0xa0, 0x0a, 0x00, 0x00, 0x60, 0x0a, 0x00, 0x00,
  0x20, 0x0a, 0x00, 0x00, 0xdc, 0x09, 0x00, 0x00, 0x98, 0x09, 0x00, 0x00,
  0x2c, 0x09, 0x00, 0x00, 0xe0, 0x08, 0x00, 0x00, 0x6c, 0x08, 0x00, 0x00,
  0x1c, 0x08, 0x00, 0x00, 0x98, 0x07, 0x00, 0x00, 0x28, 0x07, 0x00, 0x00,
  0xbc, 0x06, 0x00, 0x00, 0x4c, 0x06, 0x00, 0x00, 0xdc, 0x05, 0x00, 0x00,
  0x6c, 0x05, 0x00, 0x00, 0xfc, 0x04, 0x00, 0x00, 0x8c, 0x04, 0x00, 0x00,
  0x1c, 0x04, 0x00, 0x00, 0xa8, 0x03, 0x00, 0x00, 0x3c, 0x03, 0x00, 0x00,
  0xc8, 0x02, 0x00, 0x00, 0x58, 0x02, 0x00, 0x00, 0xe8, 0x01, 0x00, 0x00,
  0x78, 0x01, 0x00, 0x00, 0x08, 0x01, 0x00, 0x00, 0x98, 0x00, 0x00, 0x00,
  0x04, 0x00, 0x00, 0x00, 0xb8, 0xca, 0xff, 0xff, 0x1c, 0x00, 0x00, 0x00,
  0x00, 0x00, 0x00, 0x01, 0x34, 0x00, 0x00, 0x00, 0x34, 0x00, 0x00, 0x00,
  0x84, 0x00, 0x00, 0x00, 0x00, 0x00, 0x00, 0x0e, 0x70, 0x00, 0x00, 0x00,
  0x01, 0x00, 0x00, 0x00, 0x04, 0x00, 0x00, 0x00, 0x9e, 0xca, 0xff, 0xff,
  0x00, 0x00, 0x00, 0x01, 0x04, 0x00, 0x00, 0x00, 0x02, 0x00, 0x00, 0x00,
  0x00, 0x00, 0x00, 0x00, 0x0c, 0x00, 0x00, 0x00, 0x84, 0xc4, 0xff, 0xff,
  0x40, 0x00, 0x00, 0x00, 0x73, 0x65, 0x71, 0x75, 0x65, 0x6e, 0x74, 0x69,
  0x61, 0x6c, 0x5f, 0x31, 0x2f, 0x6c, 0x73, 0x74, 0x6d, 0x5f, 0x31, 0x5f,
  0x32, 0x2f, 0x77, 0x68, 0x69, 0x6c, 0x65, 0x2f, 0x54, 0x65, 0x6e, 0x73,
  0x6f, 0x72, 0x41, 0x72, 0x72, 0x61, 0x79, 0x56, 0x32, 0x57, 0x72, 0x69,
  0x74, 0x65, 0x2f, 0x54, 0x65, 0x6e, 0x73, 0x6f, 0x72, 0x4c, 0x69, 0x73,
  0x74, 0x53, 0x65, 0x74, 0x49, 0x74, 0x65, 0x6d, 0x00, 0x00, 0x00, 0x00,
  0x00, 0x00, 0x00, 0x00, 0x06, 0xc6, 0xff, 0xff, 0x00, 0x00, 0x00, 0x01,
  0x14, 0x00, 0x00, 0x00, 0x1c, 0x00, 0x00, 0x00, 0x1c, 0x00, 0x00, 0x00,
  0x83, 0x00, 0x00, 0x00, 0x48, 0x00, 0x00, 0x00, 0x02, 0x00, 0x00, 0x00,
  0xff, 0xff, 0xff, 0xff, 0x0c, 0x00, 0x00, 0x00, 0xfc, 0xc4, 0xff, 0xff,
  0x2d, 0x00, 0x00, 0x00, 0x73, 0x65, 0x71, 0x75, 0x65, 0x6e, 0x74, 0x69,
  0x61, 0x6c, 0x5f, 0x31, 0x2f, 0x6c, 0x73, 0x74, 0x6d, 0x5f, 0x31, 0x5f,
  0x32, 0x2f, 0x77, 0x68, 0x69, 0x6c, 0x65, 0x2f, 0x6c, 0x73, 0x74, 0x6d,
  0x5f, 0x63, 0x65, 0x6c, 0x6c, 0x5f, 0x31, 0x2f, 0x6d, 0x75, 0x6c, 0x5f,
  0x32, 0x00, 0x00, 0x00, 0x02, 0x00, 0x00, 0x00, 0x01, 0x00, 0x00, 0x00,
